{
  "version": "1.0",
  "truncation": null,
  "padding": null,
  "added_tokens": [
    {
      "id": 0,
      "content": "[PAD]",
      "single_word": false,
      "lstrip": false,
      "rstrip": false,
      "normalized": false,
      "special": true
    },
    {
      "id": 1,
      "content": "[UNK]",
      "single_word": false,
      "lstrip": false,
      "rstrip": false,
      "normalized": false,
      "special": true
    },
    {
      "id": 2,
      "content": "[CLS]",
      "single_word": false,
      "lstrip": false,
      "rstrip": false,
      "normalized": false,
      "special": true
    },
    {
      "id": 3,
      "content": "[SEP]",
      "single_word": false,
      "lstrip": false,
      "rstrip": false,
      "normalized": false,
      "special": true
    },
    {
      "id": 4,
      "content": "[MASK]",
      "single_word": false,
      "lstrip": false,
      "rstrip": false,
      "normalized": false,
      "special": true
    }
  ],
  "normalizer": null,
  "pre_tokenizer": {
    "type": "Whitespace"
  },
  "post_processor": {
    "type": "TemplateProcessing",
    "single": [
      {
        "SpecialToken": {
          "id": "[CLS]",
          "type_id": 0
        }
      },
      {
        "Sequence": {
          "id": "A",
          "type_id": 0
        }
      },
      {
        "SpecialToken": {
          "id": "[SEP]",
          "type_id": 0
        }
      }
    ],
    "pair": [
      {
        "SpecialToken": {
          "id": "[CLS]",
          "type_id": 0
        }
      },
      {
        "Sequence": {
          "id": "A",
          "type_id": 0
        }
      },
      {
        "SpecialToken": {
          "id": "[SEP]",
          "type_id": 0
        }
      },
      {
        "Sequence": {
          "id": "B",
          "type_id": 1
        }
      },
      {
        "SpecialToken": {
          "id": "[SEP]",
          "type_id": 1
        }
      }
    ],
    "special_tokens": {
      "[CLS]": {
        "id": "[CLS]",
        "ids": [
          2
        ],
        "tokens": [
          "[CLS]"
        ]
      },
      "[SEP]": {
        "id": "[SEP]",
        "ids": [
          3
        ],
        "tokens": [
          "[SEP]"
        ]
      }
    }
  },
  "decoder": null,
  "model": {
    "type": "BPE",
    "dropout": null,
    "unk_token": "[UNK]",
    "continuing_subword_prefix": null,
    "end_of_word_suffix": null,
    "fuse_unk": false,
    "byte_fallback": false,
    "ignore_merges": false,
    "vocab": {
      "[PAD]": 0,
      "[UNK]": 1,
      "[CLS]": 2,
      "[SEP]": 3,
      "[MASK]": 4,
      "!": 5,
      "\"": 6,
      "#": 7,
      "$": 8,
      "%": 9,
      "&": 10,
      "'": 11,
      "(": 12,
      ")": 13,
      "*": 14,
      "+": 15,
      ",": 16,
      "-": 17,
      ".": 18,
      "/": 19,
      "0": 20,
      "1": 21,
      "2": 22,
      "3": 23,
      "4": 24,
      "5": 25,
      "6": 26,
      "7": 27,
      "8": 28,
      "9": 29,
      ":": 30,
      ";": 31,
      "<": 32,
      "=": 33,
      ">": 34,
      "?": 35,
      "@": 36,
      "A": 37,
      "B": 38,
      "C": 39,
      "D": 40,
      "E": 41,
      "F": 42,
      "G": 43,
      "H": 44,
      "I": 45,
      "J": 46,
      "K": 47,
      "L": 48,
      "M": 49,
      "N": 50,
      "O": 51,
      "P": 52,
      "Q": 53,
      "R": 54,
      "S": 55,
      "T": 56,
      "U": 57,
      "V": 58,
      "W": 59,
      "X": 60,
      "Y": 61,
      "Z": 62,
      "[": 63,
      "\\": 64,
      "]": 65,
      "^": 66,
      "_": 67,
      "`": 68,
      "a": 69,
      "b": 70,
      "c": 71,
      "d": 72,
      "e": 73,
      "f": 74,
      "g": 75,
      "h": 76,
      "i": 77,
      "j": 78,
      "k": 79,
      "l": 80,
      "m": 81,
      "n": 82,
      "o": 83,
      "p": 84,
      "q": 85,
      "r": 86,
      "s": 87,
      "t": 88,
      "u": 89,
      "v": 90,
      "w": 91,
      "x": 92,
      "y": 93,
      "z": 94,
      "{": 95,
      "|": 96,
      "}": 97,
      "~": 98,
      "¡": 99,
      "¢": 100,
      "£": 101,
      "¤": 102,
      "¥": 103,
      "¦": 104,
      "§": 105,
      "¨": 106,
      "©": 107,
      "ª": 108,
      "«": 109,
      "¬": 110,
      "­": 111,
      "®": 112,
      "¯": 113,
      "°": 114,
      "±": 115,
      "²": 116,
      "³": 117,
      "´": 118,
      "µ": 119,
      "¶": 120,
      "·": 121,
      "¸": 122,
      "¹": 123,
      "º": 124,
      "»": 125,
      "¼": 126,
      "½": 127,
      "¾": 128,
      "¿": 129,
      "À": 130,
      "Á": 131,
      "Â": 132,
      "Ã": 133,
      "Ä": 134,
      "Å": 135,
      "Æ": 136,
      "Ç": 137,
      "È": 138,
      "É": 139,
      "Ê": 140,
      "Ë": 141,
      "Ì": 142,
      "Í": 143,
      "Î": 144,
      "Ð": 145,
      "Ñ": 146,
      "Ó": 147,
      "Ô": 148,
      "Ö": 149,
      "×": 150,
      "Ø": 151,
      "Ú": 152,
      "Ü": 153,
      "Þ": 154,
      "ß": 155,
      "à": 156,
      "á": 157,
      "â": 158,
      "ã": 159,
      "ä": 160,
      "å": 161,
      "æ": 162,
      "ç": 163,
      "è": 164,
      "é": 165,
      "ê": 166,
      "ë": 167,
      "ì": 168,
      "í": 169,
      "î": 170,
      "ï": 171,
      "ð": 172,
      "ñ": 173,
      "ò": 174,
      "ó": 175,
      "ô": 176,
      "õ": 177,
      "ö": 178,
      "÷": 179,
      "ø": 180,
      "ù": 181,
      "ú": 182,
      "û": 183,
      "ü": 184,
      "ý": 185,
      "þ": 186,
      "ÿ": 187,
      "ā": 188,
      "ă": 189,
      "ą": 190,
      "Ć": 191,
      "ć": 192,
      "Č": 193,
      "č": 194,
      "Đ": 195,
      "Ē": 196,
      "ē": 197,
      "ė": 198,
      "ę": 199,
      "ě": 200,
      "ğ": 201,
      "ġ": 202,
      "Ħ": 203,
      "ħ": 204,
      "Ī": 205,
      "ī": 206,
      "İ": 207,
      "ı": 208,
      "Ł": 209,
      "ł": 210,
      "ń": 211,
      "ň": 212,
      "Ō": 213,
      "ō": 214,
      "ŏ": 215,
      "ő": 216,
      "Œ": 217,
      "œ": 218,
      "ř": 219,
      "Ś": 220,
      "ś": 221,
      "Ş": 222,
      "ş": 223,
      "Š": 224,
      "š": 225,
      "Ţ": 226,
      "ţ": 227,
      "ū": 228,
      "Ÿ": 229,
      "ź": 230,
      "Ż": 231,
      "ż": 232,
      "Ž": 233,
      "ž": 234,
      "Ƙ": 235,
      "Ʀ": 236,
      "ǀ": 237,
      "ǃ": 238,
      "ǐ": 239,
      "ș": 240,
      "ț": 241,
      "ə": 242,
      "ʊ": 243,
      "ʻ": 244,
      "ʼ": 245,
      "ʽ": 246,
      "ʿ": 247,
      "ˆ": 248,
      "ˈ": 249,
      "˚": 250,
      "˜": 251,
      "˝": 252,
      "̀": 253,
      "́": 254,
      "̄": 255,
      "̈": 256,
      "̧": 257,
      ";": 258,
      "Α": 259,
      "Ζ": 260,
      "Ι": 261,
      "Λ": 262,
      "Ν": 263,
      "Τ": 264,
      "Ω": 265,
      "ά": 266,
      "ί": 267,
      "α": 268,
      "β": 269,
      "ε": 270,
      "ι": 271,
      "κ": 272,
      "μ": 273,
      "ν": 274,
      "ο": 275,
      "π": 276,
      "ρ": 277,
      "ς": 278,
      "σ": 279,
      "τ": 280,
      "φ": 281,
      "ό": 282,
      "ώ": 283,
      "ϟ": 284,
      "І": 285,
      "Ћ": 286,
      "К": 287,
      "М": 288,
      "О": 289,
      "П": 290,
      "С": 291,
      "У": 292,
      "а": 293,
      "б": 294,
      "в": 295,
      "д": 296,
      "е": 297,
      "з": 298,
      "и": 299,
      "й": 300,
      "к": 301,
      "л": 302,
      "м": 303,
      "н": 304,
      "о": 305,
      "п": 306,
      "р": 307,
      "с": 308,
      "т": 309,
      "у": 310,
      "ы": 311,
      "ь": 312,
      "ю": 313,
      "я": 314,
      "і": 315,
      "ї": 316,
      "Ӓ": 317,
      "Ӧ": 318,
      "Ԯ": 319,
      "ן": 320,
      "أ": 321,
      "ا": 322,
      "ب": 323,
      "ة": 324,
      "ت": 325,
      "ج": 326,
      "ح": 327,
      "ر": 328,
      "س": 329,
      "ش": 330,
      "ع": 331,
      "ف": 332,
      "ك": 333,
      "ل": 334,
      "م": 335,
      "و": 336,
      "ي": 337,
      "ง": 338,
      "ต": 339,
      "บ": 340,
      "ป": 341,
      "พ": 342,
      "ย": 343,
      "ร": 344,
      "ะ": 345,
      "ู": 346,
      "ḍ": 347,
      "Ḥ": 348,
      "ḥ": 349,
      "ṣ": 350,
      "ạ": 351,
      "ả": 352,
      "ấ": 353,
      "ế": 354,
      "ễ": 355,
      "ị": 356,
      "ồ": 357,
      "ἶ": 358,
      "ὴ": 359,
      "​": 360,
      "‍": 361,
      "‎": 362,
      "‏": 363,
      "‐": 364,
      "‑": 365,
      "‒": 366,
      "–": 367,
      "—": 368,
      "―": 369,
      "‘": 370,
      "’": 371,
      "‚": 372,
      "“": 373,
      "”": 374,
      "„": 375,
      "‟": 376,
      "†": 377,
      "‡": 378,
      "•": 379,
      "…": 380,
      "‪": 381,
      "‫": 382,
      "‬": 383,
      "‭": 384,
      "‰": 385,
      "′": 386,
      "″": 387,
      "‹": 388,
      "‼": 389,
      "⁄": 390,
      "⁮": 391,
      "⁰": 392,
      "₩": 393,
      "€": 394,
      "℃": 395,
      "™": 396,
      "⅓": 397,
      "⅔": 398,
      "⅛": 399,
      "⅜": 400,
      "→": 401,
      "∑": 402,
      "−": 403,
      "∙": 404,
      "∼": 405,
      "─": 406,
      "█": 407,
      "■": 408,
      "▬": 409,
      "▲": 410,
      "▼": 411,
      "●": 412,
      "★": 413,
      "☆": 414,
      "☺": 415,
      "♡": 416,
      "♥": 417,
      "❤": 418,
      "き": 419,
      "ご": 420,
      "さ": 421,
      "た": 422,
      "っ": 423,
      "て": 424,
      "ろ": 425,
      "ん": 426,
      "コ": 427,
      "ゴ": 428,
      "ネ": 429,
      "ル": 430,
      "ロ": 431,
      "ー": 432,
      "世": 433,
      "个": 434,
      "中": 435,
      "你": 436,
      "分": 437,
      "呀": 438,
      "四": 439,
      "回": 440,
      "声": 441,
      "外": 442,
      "女": 443,
      "家": 444,
      "寝": 445,
      "帰": 446,
      "年": 447,
      "心": 448,
      "新": 449,
      "方": 450,
      "明": 451,
      "春": 452,
      "曆": 453,
      "有": 454,
      "朝": 455,
      "来": 456,
      "松": 457,
      "没": 458,
      "游": 459,
      "界": 460,
      "石": 461,
      "等": 462,
      "節": 463,
      "紅": 464,
      "綠": 465,
      "縄": 466,
      "縯": 467,
      "自": 468,
      "藍": 469,
      "農": 470,
      "过": 471,
      "钱": 472,
      "门": 473,
      "音": 474,
      "鮭": 475,
      "강": 476,
      "남": 477,
      "스": 478,
      "일": 479,
      "타": 480,
      "": 481,
      "": 482,
      "": 483,
      "ﬀ": 484,
      "ﬁ": 485,
      "ﬂ": 486,
      "️": 487,
      "﻿": 488,
      "！": 489,
      "（": 490,
      "）": 491,
      "，": 492,
      "Ｍ": 493,
      "Ｓ": 494,
      "￥": 495,
      "￼": 496,
      "�": 497,
      "💀": 498,
      "😳": 499,
      "🙏": 500,
      "he": 501,
      "in": 502,
      "an": 503,
      "the": 504,
      "er": 505,
      "on": 506,
      "re": 507,
      "at": 508,
      "ed": 509,
      "en": 510,
      "to": 511,
      "st": 512,
      "or": 513,
      "ing": 514,
      "ar": 515,
      "al": 516,
      "it": 517,
      "ou": 518,
      "is": 519,
      "as": 520,
      "and": 521,
      "of": 522,
      "es": 523,
      "th": 524,
      "ic": 525,
      "le": 526,
      "om": 527,
      "il": 528,
      "id": 529,
      "be": 530,
      "ion": 531,
      "se": 532,
      "ac": 533,
      "ent": 534,
      "ve": 535,
      "ad": 536,
      "ay": 537,
      "am": 538,
      "for": 539,
      "ol": 540,
      "ow": 541,
      "ly": 542,
      "im": 543,
      "ch": 544,
      "ig": 545,
      "ro": 546,
      "was": 547,
      "ir": 548,
      "ter": 549,
      "ur": 550,
      "ver": 551,
      "The": 552,
      "ot": 553,
      "that": 554,
      "un": 555,
      "wh": 556,
      "ut": 557,
      "el": 558,
      "ag": 559,
      "ith": 560,
      "ri": 561,
      "sa": 562,
      "ha": 563,
      "with": 564,
      "ill": 565,
      "are": 566,
      "ce": 567,
      "et": 568,
      "us": 569,
      "ld": 570,
      "his": 571,
      "de": 572,
      "ne": 573,
      "ab": 574,
      "pe": 575,
      "li": 576,
      "con": 577,
      "ation": 578,
      "said": 579,
      "ers": 580,
      "lo": 581,
      "oun": 582,
      "mo": 583,
      "res": 584,
      "fr": 585,
      "out": 586,
      "ul": 587,
      "our": 588,
      "igh": 589,
      "com": 590,
      "all": 591,
      "ear": 592,
      "her": 593,
      "ke": 594,
      "ra": 595,
      "sh": 596,
      "ct": 597,
      "ther": 598,
      "op": 599,
      "we": 600,
      "em": 601,
      "by": 602,
      "su": 603,
      "la": 604,
      "have": 605,
      "from": 606,
      "has": 607,
      "one": 608,
      "ate": 609,
      "pro": 610,
      "pl": 611,
      "te": 612,
      "ap": 613,
      "ight": 614,
      "day": 615,
      "so": 616,
      "ex": 617,
      "art": 618,
      "af": 619,
      "00": 620,
      "ould": 621,
      "ain": 622,
      "man": 623,
      "di": 624,
      "fe": 625,
      "po": 626,
      "ant": 627,
      "end": 628,
      "ack": 629,
      "not": 630,
      "ment": 631,
      "ort": 632,
      "up": 633,
      "who": 634,
      "year": 635,
      "gh": 636,
      "ess": 637,
      "tr": 638,
      "ge": 639,
      "had": 640,
      "whe": 641,
      "ity": 642,
      "ist": 643,
      "over": 644,
      "ice": 645,
      "ere": 646,
      "ust": 647,
      "but": 648,
      "od": 649,
      "she": 650,
      "wor": 651,
      "ome": 652,
      "ard": 653,
      "ak": 654,
      "own": 655,
      "per": 656,
      "ive": 657,
      "they": 658,
      "been": 659,
      "were": 660,
      "after": 661,
      "sp": 662,
      "ound": 663,
      "au": 664,
      "their": 665,
      "qu": 666,
      "red": 667,
      "tor": 668,
      "off": 669,
      "do": 670,
      "ide": 671,
      "ast": 672,
      "will": 673,
      "ies": 674,
      "der": 675,
      "this": 676,
      "ok": 677,
      "ich": 678,
      "cl": 679,
      "ial": 680,
      "go": 681,
      "um": 682,
      "fo": 683,
      "ber": 684,
      "bo": 685,
      "port": 686,
      "tim": 687,
      "if": 688,
      "ough": 689,
      "ev": 690,
      "gr": 691,
      "act": 692,
      "me": 693,
      "He": 694,
      "pr": 695,
      "ine": 696,
      "In": 697,
      "20": 698,
      "ong": 699,
      "ous": 700,
      "cr": 701,
      "ie": 702,
      "ell": 703,
      "It": 704,
      "age": 705,
      "ud": 706,
      "can": 707,
      "ck": 708,
      "est": 709,
      "no": 710,
      "which": 711,
      "iv": 712,
      "ia": 713,
      "ho": 714,
      "co": 715,
      "wo": 716,
      "old": 717,
      "say": 718,
      "bl": 719,
      "ep": 720,
      "ts": 721,
      "ans": 722,
      "ace": 723,
      "now": 724,
      "che": 725,
      "ame": 726,
      "ary": 727,
      "ated": 728,
      "about": 729,
      "mer": 730,
      "ren": 731,
      "ally": 732,
      "when": 733,
      "more": 734,
      "Ch": 735,
      "ind": 736,
      "ail": 737,
      "other": 738,
      "ass": 739,
      "way": 740,
      "you": 741,
      "him": 742,
      "would": 743,
      "av": 744,
      "ff": 745,
      "att": 746,
      "ile": 747,
      "An": 748,
      "br": 749,
      "pol": 750,
      "ople": 751,
      "ake": 752,
      "its": 753,
      ".'": 754,
      "pp": 755,
      "dis": 756,
      "ence": 757,
      "ite": 758,
      "ident": 759,
      "ue": 760,
      "fir": 761,
      "201": 762,
      "comp": 763,
      "ild": 764,
      "also": 765,
      "work": 766,
      "ions": 767,
      "any": 768,
      "ree": 769,
      "cent": 770,
      "people": 771,
      "new": 772,
      "very": 773,
      "cre": 774,
      "mon": 775,
      "ict": 776,
      "ign": 777,
      "part": 778,
      "cor": 779,
      "get": 780,
      "two": 781,
      ",\"": 782,
      "than": 783,
      "some": 784,
      "St": 785,
      "ick": 786,
      "ss": 787,
      "time": 788,
      "my": 789,
      "pres": 790,
      "ure": 791,
      "able": 792,
      "ark": 793,
      "oll": 794,
      "fore": 795,
      "into": 796,
      "ian": 797,
      "last": 798,
      "just": 799,
      "ish": 800,
      "med": 801,
      "ip": 802,
      "Mr": 803,
      "Br": 804,
      "coun": 805,
      "ft": 806,
      "--": 807,
      "land": 808,
      "ek": 809,
      "them": 810,
      "ser": 811,
      "thing": 812,
      "str": 813,
      "told": 814,
      "ach": 815,
      "int": 816,
      "could": 817,
      "like": 818,
      "pre": 819,
      "But": 820,
      "ang": 821,
      "ath": 822,
      "son": 823,
      "ble": 824,
      "years": 825,
      "play": 826,
      "back": 827,
      "there": 828,
      "ade": 829,
      "We": 830,
      "amp": 831,
      "air": 832,
      ".\"": 833,
      "first": 834,
      "ance": 835,
      "Ne": 836,
      "ning": 837,
      "don": 838,
      "ry": 839,
      "cau": 840,
      "car": 841,
      "ved": 842,
      "ty": 843,
      "ire": 844,
      "hel": 845,
      "leg": 846,
      "sel": 847,
      "19": 848,
      "cont": 849,
      "ph": 850,
      "ug": 851,
      "ink": 852,
      "iss": 853,
      "down": 854,
      "fam": 855,
      "ily": 856,
      "min": 857,
      "ater": 858,
      "Th": 859,
      "used": 860,
      "ase": 861,
      "iz": 862,
      "ins": 863,
      "ving": 864,
      "ted": 865,
      "Un": 866,
      "She": 867,
      "inter": 868,
      "ting": 869,
      "ens": 870,
      "before": 871,
      "cause": 872,
      "what": 873,
      "tra": 874,
      "ical": 875,
      "ations": 876,
      "again": 877,
      "week": 878,
      "being": 879,
      "ob": 880,
      "show": 881,
      "enc": 882,
      "urn": 883,
      "fl": 884,
      "ful": 885,
      "ding": 886,
      "child": 887,
      "call": 888,
      "where": 889,
      "des": 890,
      "report": 891,
      "ious": 892,
      "Al": 893,
      ",'": 894,
      "home": 895,
      "most": 896,
      "uring": 897,
      "ition": 898,
      "000": 899,
      "offic": 900,
      "cho": 901,
      "sc": 902,
      "ates": 903,
      "try": 904,
      "did": 905,
      "cond": 906,
      "New": 907,
      "right": 908,
      "ton": 909,
      "under": 910,
      "tri": 911,
      "says": 912,
      "spe": 913,
      "found": 914,
      "wom": 915,
      "oup": 916,
      "cur": 917,
      "reat": 918,
      "200": 919,
      "thr": 920,
      "ction": 921,
      "ited": 922,
      "rem": 923,
      "ubl": 924,
      "police": 925,
      "ress": 926,
      "month": 927,
      "left": 928,
      "how": 929,
      "want": 930,
      "Le": 931,
      "add": 932,
      "because": 933,
      "look": 934,
      "ince": 935,
      "ann": 936,
      "three": 937,
      "og": 938,
      "incl": 939,
      "cer": 940,
      "ash": 941,
      "vers": 942,
      "dr": 943,
      "ub": 944,
      "ult": 945,
      "illion": 946,
      "fin": 947,
      "while": 948,
      "ef": 949,
      "hed": 950,
      "sto": 951,
      "only": 952,
      "als": 953,
      "char": 954,
      "sur": 955,
      "ents": 956,
      "vis": 957,
      "led": 958,
      "gu": 959,
      "tak": 960,
      "head": 961,
      "ured": 962,
      "ating": 963,
      "cted": 964,
      "come": 965,
      "bet": 966,
      "anc": 967,
      "pt": 968,
      "made": 969,
      "family": 970,
      "ose": 971,
      "cess": 972,
      "CN": 973,
      "And": 974,
      "ational": 975,
      "CNN": 976,
      "side": 977,
      "comm": 978,
      "lead": 979,
      "set": 980,
      "form": 981,
      "pos": 982,
      "bu": 983,
      "Fr": 984,
      "then": 985,
      "rest": 986,
      "riend": 987,
      "cour": 988,
      "against": 989,
      "kill": 990,
      "ters": 991,
      "Ar": 992,
      "cla": 993,
      "vic": 994,
      "ret": 995,
      "overn": 996,
      "during": 997,
      "ublic": 998,
      "ves": 999,
      "ouse": 1000,
      "reg": 1001,
      "alk": 1002,
      "Mar": 1003,
      "life": 1004,
      "help": 1005,
      "read": 1006,
      "ced": 1007,
      "friend": 1008,
      "though": 1009,
      "ward": 1010,
      "through": 1011,
      "ise": 1012,
      "ities": 1013,
      "ven": 1014,
      "Wh": 1015,
      "Ro": 1016,
      "claim": 1017,
      "pict": 1018,
      "They": 1019,
      "appe": 1020,
      "even": 1021,
      "many": 1022,
      "De": 1023,
      "well": 1024,
      "ather": 1025,
      "includ": 1026,
      "col": 1027,
      "ital": 1028,
      "cle": 1029,
      "ster": 1030,
      "fi": 1031,
      "ner": 1032,
      "ors": 1033,
      "ank": 1034,
      "every": 1035,
      "long": 1036,
      "vie": 1037,
      "ask": 1038,
      "put": 1039,
      "..": 1040,
      "atch": 1041,
      "ever": 1042,
      "use": 1043,
      "cial": 1044,
      "cover": 1045,
      "dec": 1046,
      ".’": 1047,
      "Jo": 1048,
      "make": 1049,
      "si": 1050,
      "world": 1051,
      "vide": 1052,
      "clo": 1053,
      "du": 1054,
      "ased": 1055,
      "chool": 1056,
      "rel": 1057,
      "around": 1058,
      "vel": 1059,
      "cording": 1060,
      "know": 1061,
      "law": 1062,
      "10": 1063,
      "test": 1064,
      "million": 1065,
      "beli": 1066,
      "self": 1067,
      "see": 1068,
      "uch": 1069,
      "sy": 1070,
      "war": 1071,
      "Brit": 1072,
      "children": 1073,
      "En": 1074,
      "ctor": 1075,
      "need": 1076,
      "This": 1077,
      "vest": 1078,
      "pers": 1079,
      "ason": 1080,
      "going": 1081,
      "ffer": 1082,
      "Amer": 1083,
      "overnment": 1084,
      "Americ": 1085,
      "ger": 1086,
      "four": 1087,
      "take": 1088,
      "think": 1089,
      "Re": 1090,
      "team": 1091,
      "hand": 1092,
      "ris": 1093,
      "aren": 1094,
      "night": 1095,
      "came": 1096,
      "mil": 1097,
      "start": 1098,
      "ten": 1099,
      "As": 1100,
      "ings": 1101,
      "ama": 1102,
      "line": 1103,
      "cus": 1104,
      "ged": 1105,
      "ollow": 1106,
      "cap": 1107,
      "cut": 1108,
      "gan": 1109,
      "bed": 1110,
      "attack": 1111,
      "miss": 1112,
      "should": 1113,
      "outh": 1114,
      "arri": 1115,
      "tain": 1116,
      "may": 1117,
      "ms": 1118,
      "ures": 1119,
      "let": 1120,
      "since": 1121,
      "xt": 1122,
      "ale": 1123,
      "win": 1124,
      "ling": 1125,
      "tory": 1126,
      "esday": 1127,
      "still": 1128,
      "happ": 1129,
      "view": 1130,
      "os": 1131,
      "ared": 1132,
      "bre": 1133,
      "mother": 1134,
      "alth": 1135,
      "death": 1136,
      "mem": 1137,
      "stand": 1138,
      "ual": 1139,
      "run": 1140,
      "ES": 1141,
      "high": 1142,
      "bro": 1143,
      "your": 1144,
      "sm": 1145,
      "pon": 1146,
      "hen": 1147,
      "irl": 1148,
      "ody": 1149,
      "jo": 1150,
      "emp": 1151,
      "those": 1152,
      "und": 1153,
      "Se": 1154,
      "bor": 1155,
      "invest": 1156,
      "ney": 1157,
      "Mo": 1158,
      "aw": 1159,
      "ED": 1160,
      "ement": 1161,
      "ime": 1162,
      "aking": 1163,
      "near": 1164,
      "official": 1165,
      "les": 1166,
      "No": 1167,
      "school": 1168,
      "follow": 1169,
      "By": 1170,
      "ments": 1171,
      "group": 1172,
      "ci": 1173,
      "called": 1174,
      "sl": 1175,
      "got": 1176,
      "sign": 1177,
      "ames": 1178,
      "je": 1179,
      "country": 1180,
      "exp": 1181,
      "del": 1182,
      "gest": 1183,
      "ca": 1184,
      "ied": 1185,
      "government": 1186,
      "ween": 1187,
      "For": 1188,
      "dri": 1189,
      "men": 1190,
      "ma": 1191,
      "kes": 1192,
      "vi": 1193,
      "spo": 1194,
      "United": 1195,
      "ham": 1196,
      "less": 1197,
      "sho": 1198,
      "EST": 1199,
      "cal": 1200,
      "ener": 1201,
      "ley": 1202,
      "ave": 1203,
      "top": 1204,
      "ists": 1205,
      "ross": 1206,
      "person": 1207,
      "fer": 1208,
      "between": 1209,
      "Pol": 1210,
      "including": 1211,
      "ball": 1212,
      "former": 1213,
      "national": 1214,
      "ular": 1215,
      "vol": 1216,
      "such": 1217,
      "Mon": 1218,
      "app": 1219,
      "ran": 1220,
      "ele": 1221,
      "second": 1222,
      "ower": 1223,
      "public": 1224,
      "sent": 1225,
      "ister": 1226,
      "book": 1227,
      "At": 1228,
      "much": 1229,
      "There": 1230,
      "eng": 1231,
      "court": 1232,
      "care": 1233,
      "sen": 1234,
      "unt": 1235,
      "Pr": 1236,
      "ife": 1237,
      "cu": 1238,
      "sex": 1239,
      "Eng": 1240,
      "IS": 1241,
      "ship": 1242,
      "plan": 1243,
      "On": 1244,
      "fil": 1245,
      "giv": 1246,
      "ned": 1247,
      "pass": 1248,
      "ina": 1249,
      "ised": 1250,
      "ib": 1251,
      "ury": 1252,
      "good": 1253,
      "took": 1254,
      "pect": 1255,
      "stud": 1256,
      "num": 1257,
      "ened": 1258,
      "Be": 1259,
      "ics": 1260,
      "resident": 1261,
      "ah": 1262,
      "girl": 1263,
      "ork": 1264,
      "video": 1265,
      "body": 1266,
      "sup": 1267,
      "youn": 1268,
      "Ob": 1269,
      "2013": 1270,
      "tle": 1271,
      "ined": 1272,
      "investig": 1273,
      "bus": 1274,
      "ys": 1275,
      "thor": 1276,
      "def": 1277,
      "women": 1278,
      "hour": 1279,
      "away": 1280,
      "50": 1281,
      "ral": 1282,
      "Co": 1283,
      "hoto": 1284,
      "pri": 1285,
      "ages": 1286,
      "place": 1287,
      "according": 1288,
      "ds": 1289,
      "days": 1290,
      "quest": 1291,
      "Lon": 1292,
      "Man": 1293,
      "next": 1294,
      "ier": 1295,
      "fac": 1296,
      "Af": 1297,
      "never": 1298,
      "kn": 1299,
      "five": 1300,
      "ched": 1301,
      "room": 1302,
      "woman": 1303,
      "sure": 1304,
      "stat": 1305,
      "spital": 1306,
      "London": 1307,
      "ines": 1308,
      "ative": 1309,
      "Nor": 1310,
      "hu": 1311,
      "later": 1312,
      "uck": 1313,
      "olog": 1314,
      "wr": 1315,
      "vice": 1316,
      "30": 1317,
      "went": 1318,
      "respon": 1319,
      "bers": 1320,
      "house": 1321,
      "augh": 1322,
      "another": 1323,
      "oney": 1324,
      "Bo": 1325,
      "Car": 1326,
      "ness": 1327,
      "par": 1328,
      "point": 1329,
      "state": 1330,
      "rist": 1331,
      "alleg": 1332,
      "seen": 1333,
      "case": 1334,
      "sing": 1335,
      "den": 1336,
      "contr": 1337,
      "io": 1338,
      "added": 1339,
      "pay": 1340,
      "iday": 1341,
      "Mc": 1342,
      "acc": 1343,
      "imp": 1344,
      "months": 1345,
      "photo": 1346,
      "12": 1347,
      "arch": 1348,
      "sol": 1349,
      "Con": 1350,
      "ll": 1351,
      "mber": 1352,
      "contin": 1353,
      "pictured": 1354,
      "rele": 1355,
      "aged": 1356,
      "hal": 1357,
      "wit": 1358,
      "big": 1359,
      "hn": 1360,
      "uro": 1361,
      "fect": 1362,
      "11": 1363,
      "foot": 1364,
      "sk": 1365,
      "mark": 1366,
      "uary": 1367,
      "here": 1368,
      "too": 1369,
      "find": 1370,
      "lit": 1371,
      "ax": 1372,
      "lar": 1373,
      "died": 1374,
      "same": 1375,
      "exper": 1376,
      "these": 1377,
      "gra": 1378,
      "clear": 1379,
      "ces": 1380,
      "post": 1381,
      "reported": 1382,
      "real": 1383,
      "support": 1384,
      "ants": 1385,
      "ually": 1386,
      "camp": 1387,
      "does": 1388,
      "taken": 1389,
      "oper": 1390,
      "pped": 1391,
      "mit": 1392,
      "Com": 1393,
      "ison": 1394,
      "ffic": 1395,
      "ended": 1396,
      "Sun": 1397,
      "won": 1398,
      "face": 1399,
      "father": 1400,
      "Obama": 1401,
      "press": 1402,
      "both": 1403,
      "ivers": 1404,
      "John": 1405,
      "York": 1406,
      "cons": 1407,
      "Bar": 1408,
      "ague": 1409,
      "issu": 1410,
      "ago": 1411,
      "sub": 1412,
      "2012": 1413,
      "today": 1414,
      "blo": 1415,
      "inj": 1416,
      "Li": 1417,
      "ways": 1418,
      "Wor": 1419,
      "ility": 1420,
      "inc": 1421,
      "atur": 1422,
      "cri": 1423,
      "six": 1424,
      "star": 1425,
      "Dav": 1426,
      "arrest": 1427,
      "Police": 1428,
      "18": 1429,
      "allow": 1430,
      "ets": 1431,
      "15": 1432,
      "move": 1433,
      "rent": 1434,
      "West": 1435,
      "wife": 1436,
      "far": 1437,
      "turn": 1438,
      "young": 1439,
      "sha": 1440,
      "oc": 1441,
      "ready": 1442,
      "Tu": 1443,
      "ste": 1444,
      "sus": 1445,
      "using": 1446,
      "produ": 1447,
      "site": 1448,
      "nor": 1449,
      "ency": 1450,
      "Sp": 1451,
      "South": 1452,
      "killed": 1453,
      "really": 1454,
      "health": 1455,
      "If": 1456,
      "az": 1457,
      "appear": 1458,
      "bab": 1459,
      "pat": 1460,
      "When": 1461,
      "poss": 1462,
      "sit": 1463,
      "ered": 1464,
      "You": 1465,
      "dire": 1466,
      "shot": 1467,
      "Sy": 1468,
      "feel": 1469,
      "band": 1470,
      "season": 1471,
      "didn": 1472,
      "milit": 1473,
      "det": 1474,
      "daugh": 1475,
      "net": 1476,
      "rece": 1477,
      "How": 1478,
      "aid": 1479,
      "remain": 1480,
      "prev": 1481,
      "urs": 1482,
      "ific": 1483,
      "ony": 1484,
      "So": 1485,
      "ange": 1486,
      "ene": 1487,
      "aff": 1488,
      "recent": 1489,
      "sever": 1490,
      "lot": 1491,
      "fire": 1492,
      "AT": 1493,
      "Euro": 1494,
      "That": 1495,
      "stri": 1496,
      "known": 1497,
      "Rep": 1498,
      "best": 1499,
      "ible": 1500,
      "ps": 1501,
      "light": 1502,
      "president": 1503,
      "polit": 1504,
      "ought": 1505,
      "late": 1506,
      "World": 1507,
      "One": 1508,
      "half": 1509,
      "ore": 1510,
      "water": 1511,
      "Cl": 1512,
      "number": 1513,
      "May": 1514,
      "gy": 1515,
      "game": 1516,
      "incre": 1517,
      "iness": 1518,
      "ref": 1519,
      "Ste": 1520,
      "ending": 1521,
      "club": 1522,
      "England": 1523,
      "list": 1524,
      "Aust": 1525,
      "loy": 1526,
      "author": 1527,
      "amer": 1528,
      "minut": 1529,
      "Sh": 1530,
      "British": 1531,
      "met": 1532,
      "ator": 1533,
      "wn": 1534,
      "iting": 1535,
      "eld": 1536,
      "curity": 1537,
      "Is": 1538,
      "build": 1539,
      "money": 1540,
      "keep": 1541,
      "differ": 1542,
      "paren": 1543,
      "pop": 1544,
      "return": 1545,
      "spokes": 1546,
      "ont": 1547,
      "Pe": 1548,
      "prom": 1549,
      "stem": 1550,
      "His": 1551,
      "few": 1552,
      "ford": 1553,
      "mor": 1554,
      "ining": 1555,
      "hospital": 1556,
      "'.": 1557,
      "reve": 1558,
      "bar": 1559,
      "order": 1560,
      "ones": 1561,
      "vid": 1562,
      "hold": 1563,
      "ject": 1564,
      "mat": 1565,
      "hit": 1566,
      "colle": 1567,
      "pected": 1568,
      "ped": 1569,
      "company": 1570,
      "President": 1571,
      "believ": 1572,
      "ext": 1573,
      "ern": 1574,
      "tors": 1575,
      "16": 1576,
      "ons": 1577,
      "Ju": 1578,
      "American": 1579,
      "Gr": 1580,
      "Go": 1581,
      "ember": 1582,
      "Rus": 1583,
      "Jan": 1584,
      "open": 1585,
      "ges": 1586,
      "val": 1587,
      "mur": 1588,
      "Sunday": 1589,
      "victim": 1590,
      "UK": 1591,
      "until": 1592,
      "city": 1593,
      "thought": 1594,
      "commun": 1595,
      "without": 1596,
      "talk": 1597,
      "gre": 1598,
      "hours": 1599,
      "ished": 1600,
      "having": 1601,
      "deal": 1602,
      "ety": 1603,
      "asked": 1604,
      "sum": 1605,
      "Coun": 1606,
      "Mic": 1607,
      "gun": 1608,
      "recor": 1609,
      "daughter": 1610,
      "ey": 1611,
      "walk": 1612,
      "ired": 1613,
      "City": 1614,
      "invol": 1615,
      "Christ": 1616,
      "ager": 1617,
      "eve": 1618,
      "proble": 1619,
      "ately": 1620,
      "saying": 1621,
      "14": 1622,
      "cot": 1623,
      "prof": 1624,
      "Monday": 1625,
      "ives": 1626,
      "ground": 1627,
      "ord": 1628,
      "Ger": 1629,
      "bur": 1630,
      "cas": 1631,
      "Har": 1632,
      "Min": 1633,
      "ism": 1634,
      "ying": 1635,
      "ror": 1636,
      "To": 1637,
      "times": 1638,
      "mid": 1639,
      "amed": 1640,
      "ient": 1641,
      "ional": 1642,
      "Europe": 1643,
      "job": 1644,
      "appro": 1645,
      "each": 1646,
      "dead": 1647,
      "cost": 1648,
      "comple": 1649,
      "power": 1650,
      "fight": 1651,
      "Miss": 1652,
      "Tuesday": 1653,
      "mar": 1654,
      "working": 1655,
      "lier": 1656,
      "search": 1657,
      "given": 1658,
      "Cr": 1659,
      "coup": 1660,
      "dam": 1661,
      "alleged": 1662,
      "aign": 1663,
      "David": 1664,
      "velo": 1665,
      "present": 1666,
      "idence": 1667,
      "17": 1668,
      "ats": 1669,
      "close": 1670,
      "gl": 1671,
      "ali": 1672,
      "past": 1673,
      "little": 1674,
      "something": 1675,
      "following": 1676,
      "boy": 1677,
      "cret": 1678,
      "across": 1679,
      "sport": 1680,
      "Friday": 1681,
      "hol": 1682,
      "tell": 1683,
      "lim": 1684,
      "ailed": 1685,
      "viol": 1686,
      "iversity": 1687,
      "coming": 1688,
      "action": 1689,
      "Austral": 1690,
      "ird": 1691,
      "statement": 1692,
      "bel": 1693,
      "reveal": 1694,
      "drug": 1695,
      "fort": 1696,
      "system": 1697,
      "hard": 1698,
      "PD": 1699,
      "prison": 1700,
      "Ph": 1701,
      "bit": 1702,
      "rain": 1703,
      "officials": 1704,
      "une": 1705,
      "sea": 1706,
      "trans": 1707,
      "ric": 1708,
      "front": 1709,
      "Wed": 1710,
      "Her": 1711,
      "area": 1712,
      "Col": 1713,
      "pite": 1714,
      "descri": 1715,
      "suffer": 1716,
      "murder": 1717,
      "13": 1718,
      "After": 1719,
      "parents": 1720,
      "along": 1721,
      "taking": 1722,
      "organ": 1723,
      "iam": 1724,
      "plac": 1725,
      "jor": 1726,
      "early": 1727,
      "friends": 1728,
      "already": 1729,
      "25": 1730,
      "Ge": 1731,
      "couple": 1732,
      "suc": 1733,
      "ized": 1734,
      "Will": 1735,
      "campaign": 1736,
      "business": 1737,
      "TV": 1738,
      "199": 1739,
      "enn": 1740,
      "ision": 1741,
      "great": 1742,
      "hind": 1743,
      "covered": 1744,
      "members": 1745,
      "Wedn": 1746,
      "North": 1747,
      "Wednesday": 1748,
      "feat": 1749,
      "gener": 1750,
      "Dr": 1751,
      "Cup": 1752,
      "road": 1753,
      "Satur": 1754,
      "inal": 1755,
      "ically": 1756,
      "stre": 1757,
      "League": 1758,
      "believe": 1759,
      "change": 1760,
      "current": 1761,
      "gram": 1762,
      "always": 1763,
      "Saturday": 1764,
      "treat": 1765,
      "Pro": 1766,
      "military": 1767,
      "concer": 1768,
      "ived": 1769,
      "event": 1770,
      "ches": 1771,
      "outside": 1772,
      "making": 1773,
      "meet": 1774,
      "phone": 1775,
      "hus": 1776,
      "round": 1777,
      "incident": 1778,
      "threat": 1779,
      "develo": 1780,
      "started": 1781,
      "weeks": 1782,
      "free": 1783,
      "...": 1784,
      "chang": 1785,
      ",’": 1786,
      "give": 1787,
      "vo": 1788,
      "ief": 1789,
      "behind": 1790,
      "mak": 1791,
      "hes": 1792,
      "cele": 1793,
      "Thurs": 1794,
      "husband": 1795,
      "fun": 1796,
      "Cour": 1797,
      "heard": 1798,
      "ude": 1799,
      "jud": 1800,
      "wear": 1801,
      "town": 1802,
      "Thursday": 1803,
      "Inter": 1804,
      "become": 1805,
      "security": 1806,
      "Russ": 1807,
      "wa": 1808,
      "soci": 1809,
      "que": 1810,
      "travel": 1811,
      "news": 1812,
      "rid": 1813,
      "wanted": 1814,
      "marri": 1815,
      "Ms": 1816,
      "saw": 1817,
      "ush": 1818,
      "ified": 1819,
      "sug": 1820,
      "bal": 1821,
      "formation": 1822,
      "ATED": 1823,
      "mp": 1824,
      "mom": 1825,
      "Bl": 1826,
      "UPD": 1827,
      "celebr": 1828,
      "legal": 1829,
      "break": 1830,
      "UPDATED": 1831,
      "),": 1832,
      "ming": 1833,
      "love": 1834,
      "whether": 1835,
      "lost": 1836,
      "final": 1837,
      "fact": 1838,
      "design": 1839,
      "local": 1840,
      "BL": 1841,
      "several": 1842,
      "imes": 1843,
      "flo": 1844,
      "cast": 1845,
      "40": 1846,
      "crit": 1847,
      "different": 1848,
      "All": 1849,
      "row": 1850,
      "ani": 1851,
      "istr": 1852,
      "fall": 1853,
      "released": 1854,
      "least": 1855,
      "ues": 1856,
      "PU": 1857,
      "heart": 1858,
      "announ": 1859,
      "ior": 1860,
      "BC": 1861,
      "iously": 1862,
      "key": 1863,
      "Tr": 1864,
      "artment": 1865,
      "ISH": 1866,
      "might": 1867,
      "seem": 1868,
      "House": 1869,
      "Ho": 1870,
      "lor": 1871,
      "PUBL": 1872,
      "dra": 1873,
      "held": 1874,
      "ales": 1875,
      "ISHED": 1876,
      "ica": 1877,
      "PUBLISHED": 1878,
      "party": 1879,
      "claims": 1880,
      "comes": 1881,
      "dro": 1882,
      "likely": 1883,
      "tar": 1884,
      "hom": 1885,
      "human": 1886,
      "gether": 1887,
      "dog": 1888,
      "conv": 1889,
      "main": 1890,
      "pen": 1891,
      "por": 1892,
      "arrested": 1893,
      "chester": 1894,
      "ention": 1895,
      "fur": 1896,
      "looking": 1897,
      "stit": 1898,
      "ators": 1899,
      "small": 1900,
      "major": 1901,
      "dep": 1902,
      "prote": 1903,
      "hear": 1904,
      "stru": 1905,
      "hot": 1906,
      "success": 1907,
      "100": 1908,
      "Scot": 1909,
      "tax": 1910,
      "Afr": 1911,
      "food": 1912,
      "proper": 1913,
      "ands": 1914,
      "Mrs": 1915,
      "mess": 1916,
      "Ac": 1917,
      "pool": 1918,
      "live": 1919,
      "better": 1920,
      "things": 1921,
      "spokesman": 1922,
      "ory": 1923,
      "cher": 1924,
      "claimed": 1925,
      "ull": 1926,
      "ik": 1927,
      "ards": 1928,
      "erg": 1929,
      "Britain": 1930,
      "wards": 1931,
      "conom": 1932,
      "must": 1933,
      "ria": 1934,
      "trying": 1935,
      "consid": 1936,
      "shows": 1937,
      "full": 1938,
      "Lo": 1939,
      "record": 1940,
      "short": 1941,
      "players": 1942,
      "gn": 1943,
      "Scr": 1944,
      "eral": 1945,
      "ances": 1946,
      "custo": 1947,
      "Par": 1948,
      "Court": 1949,
      "stay": 1950,
      "step": 1951,
      "together": 1952,
      "cked": 1953,
      "name": 1954,
      "sw": 1955,
      "expected": 1956,
      "import": 1957,
      "level": 1958,
      "watch": 1959,
      "Gu": 1960,
      "class": 1961,
      "ane": 1962,
      "media": 1963,
      "field": 1964,
      "vir": 1965,
      "pain": 1966,
      "vot": 1967,
      "force": 1968,
      "tech": 1969,
      "among": 1970,
      "rul": 1971,
      "2011": 1972,
      "ept": 1973,
      "ising": 1974,
      "qual": 1975,
      "January": 1976,
      "Scroll": 1977,
      "ington": 1978,
      "cy": 1979,
      "University": 1980,
      "based": 1981,
      "ution": 1982,
      "States": 1983,
      "officers": 1984,
      "ided": 1985,
      "cept": 1986,
      "moved": 1987,
      "grow": 1988,
      "seven": 1989,
      "However": 1990,
      "enter": 1991,
      "atic": 1992,
      "ize": 1993,
      "anger": 1994,
      "har": 1995,
      "Face": 1996,
      "program": 1997,
      "sed": 1998,
      "once": 1999,
      "elt": 2000,
      "posed": 2001,
      "My": 2002,
      "laun": 2003,
      "Manchester": 2004,
      "himself": 2005,
      "gin": 2006,
      "morning": 2007,
      "experi": 2008,
      "partic": 2009,
      "began": 2010,
      "ential": 2011,
      "priv": 2012,
      "Dep": 2013,
      "dem": 2014,
      "suggest": 2015,
      "rote": 2016,
      "bir": 2017,
      "earlier": 2018,
      "hor": 2019,
      "Geor": 2020,
      "staff": 2021,
      "minutes": 2022,
      "Oc": 2023,
      "decision": 2024,
      "wrote": 2025,
      "Mail": 2026,
      "24": 2027,
      "aut": 2028,
      "acy": 2029,
      "sco": 2030,
      "position": 2031,
      "hael": 2032,
      "ester": 2033,
      "econom": 2034,
      "revealed": 2035,
      "urch": 2036,
      "investigation": 2037,
      "sty": 2038,
      "doing": 2039,
      "Facebook": 2040,
      "web": 2041,
      "bot": 2042,
      "information": 2043,
      "Fe": 2044,
      "ute": 2045,
      "ians": 2046,
      "US": 2047,
      "kid": 2048,
      "employ": 2049,
      "black": 2050,
      "goal": 2051,
      "interest": 2052,
      "Fo": 2053,
      "Sept": 2054,
      "risk": 2055,
      "became": 2056,
      "strong": 2057,
      "ints": 2058,
      "ana": 2059,
      "conf": 2060,
      "What": 2061,
      "omb": 2062,
      "third": 2063,
      "War": 2064,
      "terror": 2065,
      "cil": 2066,
      "authorities": 2067,
      "enough": 2068,
      "ugg": 2069,
      "others": 2070,
      "large": 2071,
      "possible": 2072,
      "ping": 2073,
      "Me": 2074,
      "social": 2075,
      "admit": 2076,
      "esterday": 2077,
      "why": 2078,
      "ler": 2079,
      "aul": 2080,
      "Michael": 2081,
      "nal": 2082,
      "pot": 2083,
      "football": 2084,
      "shoot": 2085,
      "commit": 2086,
      "aily": 2087,
      "supp": 2088,
      "count": 2089,
      "evidence": 2090,
      "September": 2091,
      "National": 2092,
      "Republic": 2093,
      "done": 2094,
      "ences": 2095,
      "compet": 2096,
      "Lu": 2097,
      "match": 2098,
      "ense": 2099,
      "due": 2100,
      "getting": 2101,
      "Ser": 2102,
      "accused": 2103,
      "fell": 2104,
      "stop": 2105,
      "wind": 2106,
      "doctor": 2107,
      "ecut": 2108,
      "Ed": 2109,
      "van": 2110,
      "mission": 2111,
      "ond": 2112,
      "ai": 2113,
      "played": 2114,
      "host": 2115,
      "hope": 2116,
      "vember": 2117,
      "shop": 2118,
      "appeared": 2119,
      "service": 2120,
      "ried": 2121,
      "November": 2122,
      "Dece": 2123,
      "control": 2124,
      "ben": 2125,
      "special": 2126,
      "Po": 2127,
      "William": 2128,
      "December": 2129,
      "Aug": 2130,
      "60": 2131,
      "requ": 2132,
      "ring": 2133,
      "charged": 2134,
      "lives": 2135,
      "almost": 2136,
      "vices": 2137,
      "tober": 2138,
      "ze": 2139,
      "board": 2140,
      "Cor": 2141,
      "eight": 2142,
      "mocr": 2143,
      "reason": 2144,
      "22": 2145,
      "October": 2146,
      "March": 2147,
      "interview": 2148,
      "hop": 2149,
      "’.": 2150,
      "wood": 2151,
      "cra": 2152,
      "trial": 2153,
      "bul": 2154,
      "21": 2155,
      "dest": 2156,
      "anim": 2157,
      "protest": 2158,
      "shire": 2159,
      "grand": 2160,
      "ology": 2161,
      "Am": 2162,
      "August": 2163,
      "Park": 2164,
      "Pal": 2165,
      "reed": 2166,
      "charges": 2167,
      "brother": 2168,
      "effect": 2169,
      "June": 2170,
      "Char": 2171,
      "slam": 2172,
      "fully": 2173,
      "mus": 2174,
      "rew": 2175,
      "techn": 2176,
      "spent": 2177,
      "happened": 2178,
      "iver": 2179,
      "Just": 2180,
      "polic": 2181,
      "tal": 2182,
      "Ex": 2183,
      "spot": 2184,
      "Ab": 2185,
      "ugh": 2186,
      "flight": 2187,
      "ston": 2188,
      "fut": 2189,
      "political": 2190,
      "tried": 2191,
      "often": 2192,
      "fig": 2193,
      "ament": 2194,
      "istan": 2195,
      "ken": 2196,
      "ium": 2197,
      "loc": 2198,
      "Some": 2199,
      "teen": 2200,
      "lear": 2201,
      "international": 2202,
      "yet": 2203,
      "Indi": 2204,
      "2010": 2205,
      "photogra": 2206,
      "China": 2207,
      "ering": 2208,
      "bi": 2209,
      "aly": 2210,
      "turned": 2211,
      "fans": 2212,
      "online": 2213,
      "important": 2214,
      "ctions": 2215,
      "born": 2216,
      "stead": 2217,
      "office": 2218,
      "uel": 2219,
      "nation": 2220,
      "execut": 2221,
      "inside": 2222,
      "aper": 2223,
      "confir": 2224,
      "term": 2225,
      "State": 2226,
      "market": 2227,
      "crim": 2228,
      "baby": 2229,
      "bad": 2230,
      "leave": 2231,
      "involved": 2232,
      "ban": 2233,
      "July": 2234,
      "dle": 2235,
      "tries": 2236,
      "pair": 2237,
      "Can": 2238,
      "low": 2239,
      "received": 2240,
      "tw": 2241,
      "ails": 2242,
      "believed": 2243,
      "film": 2244,
      "uc": 2245,
      "Apr": 2246,
      "fed": 2247,
      "adv": 2248,
      "described": 2249,
      "question": 2250,
      "April": 2251,
      "yal": 2252,
      "aster": 2253,
      "gave": 2254,
      "Or": 2255,
      "future": 2256,
      "James": 2257,
      "thern": 2258,
      "further": 2259,
      "With": 2260,
      "lex": 2261,
      "icted": 2262,
      "target": 2263,
      "relation": 2264,
      "aving": 2265,
      "23": 2266,
      "ening": 2267,
      "Jack": 2268,
      "bring": 2269,
      "igr": 2270,
      "activ": 2271,
      "scre": 2272,
      "mean": 2273,
      "lish": 2274,
      "assa": 2275,
      "dou": 2276,
      "tro": 2277,
      "ix": 2278,
      "manager": 2279,
      "miles": 2280,
      "Ira": 2281,
      "super": 2282,
      "Ham": 2283,
      "ns": 2284,
      "jour": 2285,
      "prose": 2286,
      "living": 2287,
      "sim": 2288,
      "rap": 2289,
      "yesterday": 2290,
      "director": 2291,
      "wed": 2292,
      "Iraq": 2293,
      "bank": 2294,
      "witter": 2295,
      "Mart": 2296,
      "scene": 2297,
      "eas": 2298,
      "Res": 2299,
      "squ": 2300,
      "officer": 2301,
      "trad": 2302,
      "ribut": 2303,
      "fit": 2304,
      "doesn": 2305,
      "chall": 2306,
      "story": 2307,
      "community": 2308,
      "process": 2309,
      "building": 2310,
      "birth": 2311,
      "within": 2312,
      "spec": 2313,
      "torney": 2314,
      "ico": 2315,
      "America": 2316,
      "lying": 2317,
      "leaders": 2318,
      "While": 2319,
      "mag": 2320,
      "dress": 2321,
      "billion": 2322,
      "cell": 2323,
      "nia": 2324,
      "complete": 2325,
      "White": 2326,
      "batt": 2327,
      "ino": 2328,
      "neigh": 2329,
      "dist": 2330,
      "Twitter": 2331,
      "despite": 2332,
      "forward": 2333,
      "comment": 2334,
      "famil": 2335,
      "rac": 2336,
      "ries": 2337,
      "ivil": 2338,
      "Sen": 2339,
      "itions": 2340,
      "certain": 2341,
      "Ang": 2342,
      "Don": 2343,
      "ilar": 2344,
      "kind": 2345,
      "someone": 2346,
      "leader": 2347,
      "ded": 2348,
      "vision": 2349,
      "worth": 2350,
      "tee": 2351,
      "Sm": 2352,
      "tre": 2353,
      "issue": 2354,
      "writ": 2355,
      "2014": 2356,
      "icle": 2357,
      "diffic": 2358,
      "imm": 2359,
      "abo": 2360,
      "named": 2361,
      "idge": 2362,
      "sour": 2363,
      "Chel": 2364,
      "wide": 2365,
      "deb": 2366,
      "Te": 2367,
      "chief": 2368,
      "News": 2369,
      "history": 2370,
      "Air": 2371,
      "bert": 2372,
      "Paul": 2373,
      "docu": 2374,
      "Department": 2375,
      "rad": 2376,
      "East": 2377,
      "rench": 2378,
      "San": 2379,
      "Wash": 2380,
      "beat": 2381,
      "Minister": 2382,
      "course": 2383,
      "ung": 2384,
      "tour": 2385,
      "aur": 2386,
      "Cali": 2387,
      "pick": 2388,
      "ached": 2389,
      "Je": 2390,
      "reports": 2391,
      "198": 2392,
      "ahead": 2393,
      "training": 2394,
      "forced": 2395,
      "ensive": 2396,
      "Califor": 2397,
      "Sam": 2398,
      "Sup": 2399,
      "capt": 2400,
      "guil": 2401,
      "playing": 2402,
      "mass": 2403,
      "player": 2404,
      "Des": 2405,
      "cretary": 2406,
      "Hol": 2407,
      "paid": 2408,
      "ple": 2409,
      "worked": 2410,
      "Washington": 2411,
      "ices": 2412,
      "itive": 2413,
      "drink": 2414,
      "County": 2415,
      "ults": 2416,
      "Febr": 2417,
      "February": 2418,
      "admitted": 2419,
      "27": 2420,
      "Rom": 2421,
      "oud": 2422,
      "Do": 2423,
      "reme": 2424,
      "relationship": 2425,
      "mas": 2426,
      "carry": 2427,
      "series": 2428,
      "wasn": 2429,
      "decl": 2430,
      "rights": 2431,
      "model": 2432,
      "rian": 2433,
      "Ear": 2434,
      "El": 2435,
      "Kore": 2436,
      "white": 2437,
      "ides": 2438,
      "summer": 2439,
      "anything": 2440,
      "provid": 2441,
      "ability": 2442,
      "spir": 2443,
      "park": 2444,
      "susp": 2445,
      "role": 2446,
      "26": 2447,
      "California": 2448,
      "popular": 2449,
      "serv": 2450,
      "medi": 2451,
      "acher": 2452,
      "ray": 2453,
      "veh": 2454,
      "tit": 2455,
      "moment": 2456,
      "Liver": 2457,
      "ron": 2458,
      "Australia": 2459,
      "website": 2460,
      "28": 2461,
      "suit": 2462,
      "bill": 2463,
      "explo": 2464,
      "hig": 2465,
      "gress": 2466,
      "quick": 2467,
      "**": 2468,
      "responsi": 2469,
      "ousands": 2470,
      "camer": 2471,
      "selves": 2472,
      "space": 2473,
      "ican": 2474,
      "Mil": 2475,
      "fav": 2476,
      "French": 2477,
      "Bra": 2478,
      "nothing": 2479,
      "uation": 2480,
      "arm": 2481,
      "wrong": 2482,
      "Liverpool": 2483,
      "announced": 2484,
      "mis": 2485,
      "dies": 2486,
      "hip": 2487,
      "students": 2488,
      "Chelsea": 2489,
      "continue": 2490,
      "Gre": 2491,
      "expla": 2492,
      "ination": 2493,
      "ampion": 2494,
      "dy": 2495,
      "European": 2496,
      "weight": 2497,
      "fund": 2498,
      "defend": 2499,
      "condition": 2500,
      "continu": 2501,
      "medical": 2502,
      "bour": 2503,
      "difficult": 2504,
      "Mad": 2505,
      "treatment": 2506,
      "cancer": 2507,
      "personal": 2508,
      "gen": 2509,
      "countries": 2510,
      "showed": 2511,
      "rael": 2512,
      "Mark": 2513,
      "victims": 2514,
      "soon": 2515,
      "',": 2516,
      "plans": 2517,
      "According": 2518,
      "blood": 2519,
      "fear": 2520,
      "Now": 2521,
      "Israel": 2522,
      "huge": 2523,
      "els": 2524,
      "70": 2525,
      "study": 2526,
      "nearly": 2527,
      "felt": 2528,
      "Islam": 2529,
      "caused": 2530,
      "anned": 2531,
      "enjo": 2532,
      "looked": 2533,
      "compla": 2534,
      "ata": 2535,
      "guilty": 2536,
      "simp": 2537,
      "Democr": 2538,
      "allegedly": 2539,
      "surv": 2540,
      "Afgh": 2541,
      "2009": 2542,
      "ners": 2543,
      "contact": 2544,
      "Last": 2545,
      "problem": 2546,
      "perfor": 2547,
      "recently": 2548,
      "ker": 2549,
      "track": 2550,
      "Ad": 2551,
      "Prem": 2552,
      "mal": 2553,
      "judge": 2554,
      "whose": 2555,
      "ona": 2556,
      "happy": 2557,
      "contribut": 2558,
      "Em": 2559,
      "makes": 2560,
      "understand": 2561,
      "Daily": 2562,
      "Lab": 2563,
      "Pl": 2564,
      "cel": 2565,
      "Camer": 2566,
      "500": 2567,
      "enced": 2568,
      "sn": 2569,
      "member": 2570,
      "decided": 2571,
      "depend": 2572,
      "civil": 2573,
      "race": 2574,
      "avy": 2575,
      "forces": 2576,
      "serious": 2577,
      "problems": 2578,
      "knew": 2579,
      "rock": 2580,
      "sexual": 2581,
      "pur": 2582,
      "pet": 2583,
      "flu": 2584,
      "aver": 2585,
      "similar": 2586,
      "atter": 2587,
      "plic": 2588,
      "erry": 2589,
      "ature": 2590,
      "bomb": 2591,
      "potential": 2592,
      "ither": 2593,
      "picture": 2594,
      "centre": 2595,
      "profess": 2596,
      "Ben": 2597,
      "Que": 2598,
      "sle": 2599,
      "orig": 2600,
      "suffered": 2601,
      "King": 2602,
      "Chris": 2603,
      "plane": 2604,
      "Afghan": 2605,
      "strugg": 2606,
      "expect": 2607,
      "running": 2608,
      "George": 2609,
      "door": 2610,
      "visit": 2611,
      "benef": 2612,
      "girls": 2613,
      "product": 2614,
      "Alex": 2615,
      "ference": 2616,
      "uries": 2617,
      "gas": 2618,
      "Rich": 2619,
      "hair": 2620,
      "brought": 2621,
      "games": 2622,
      "ulation": 2623,
      "mers": 2624,
      "cases": 2625,
      "means": 2626,
      "na": 2627,
      "box": 2628,
      "weet": 2629,
      "currently": 2630,
      "Mus": 2631,
      "Phil": 2632,
      "Angel": 2633,
      "stu": 2634,
      "uses": 2635,
      "FA": 2636,
      "Iran": 2637,
      "29": 2638,
      "posted": 2639,
      "ging": 2640,
      "lies": 2641,
      "include": 2642,
      "result": 2643,
      "private": 2644,
      "career": 2645,
      "immedi": 2646,
      "ida": 2647,
      "Mid": 2648,
      "quar": 2649,
      "draw": 2650,
      "Med": 2651,
      "access": 2652,
      "link": 2653,
      "charge": 2654,
      "failed": 2655,
      "France": 2656,
      "Spe": 2657,
      "violence": 2658,
      "lie": 2659,
      "king": 2660,
      "latest": 2661,
      "accident": 2662,
      "works": 2663,
      "ients": 2664,
      "safe": 2665,
      "init": 2666,
      "chance": 2667,
      "missing": 2668,
      "families": 2669,
      "weekend": 2670,
      "compan": 2671,
      "Christmas": 2672,
      "leading": 2673,
      "bas": 2674,
      "lawy": 2675,
      "Premier": 2676,
      "ops": 2677,
      "za": 2678,
      "pie": 2679,
      "ilt": 2680,
      "allowed": 2681,
      "remains": 2682,
      "sey": 2683,
      "cli": 2684,
      "anti": 2685,
      "chair": 2686,
      "impro": 2687,
      "bol": 2688,
      "ained": 2689,
      "ades": 2690,
      "ministr": 2691,
      "saf": 2692,
      "particular": 2693,
      ").": 2694,
      "ru": 2695,
      "attacks": 2696,
      "weap": 2697,
      "undred": 2698,
      "thousands": 2699,
      "Syria": 2700,
      "nine": 2701,
      "Two": 2702,
      "divid": 2703,
      "discovered": 2704,
      "gone": 2705,
      "wel": 2706,
      "needed": 2707,
      "danger": 2708,
      "loss": 2709,
      "2008": 2710,
      "gent": 2711,
      "suspect": 2712,
      "stor": 2713,
      "tele": 2714,
      "hood": 2715,
      "property": 2716,
      "everything": 2717,
      "meas": 2718,
      "style": 2719,
      "experience": 2720,
      "MP": 2721,
      "ald": 2722,
      "soldi": 2723,
      "App": 2724,
      "Rob": 2725,
      "Day": 2726,
      "avail": 2727,
      "married": 2728,
      "protect": 2729,
      "workers": 2730,
      "hearing": 2731,
      "opt": 2732,
      "pack": 2733,
      "conne": 2734,
      "themselves": 2735,
      "Mur": 2736,
      "Sha": 2737,
      "station": 2738,
      "zil": 2739,
      "anyone": 2740,
      "federal": 2741,
      "critic": 2742,
      "safety": 2743,
      "hands": 2744,
      "Cameron": 2745,
      "placed": 2746,
      "cir": 2747,
      "Sch": 2748,
      "Mex": 2749,
      "speak": 2750,
      "ounds": 2751,
      "killing": 2752,
      "cross": 2753,
      "seek": 2754,
      "ars": 2755,
      "fail": 2756,
      "calls": 2757,
      "wants": 2758,
      "Arsen": 2759,
      "range": 2760,
      "attemp": 2761,
      "publ": 2762,
      "shooting": 2763,
      "argu": 2764,
      "atives": 2765,
      "bing": 2766,
      "wat": 2767,
      "oid": 2768,
      "inv": 2769,
      "points": 2770,
      "hy": 2771,
      "Ken": 2772,
      "Not": 2773,
      "Flor": 2774,
      "leaving": 2775,
      "Pat": 2776,
      "develop": 2777,
      "cand": 2778,
      "account": 2779,
      "Smith": 2780,
      "above": 2781,
      "helped": 2782,
      "crime": 2783,
      "percent": 2784,
      "fast": 2785,
      "ov": 2786,
      "Africa": 2787,
      "equ": 2788,
      "stra": 2789,
      "sat": 2790,
      "arrived": 2791,
      "glo": 2792,
      "Brown": 2793,
      "non": 2794,
      "craft": 2795,
      "represent": 2796,
      "pun": 2797,
      "fem": 2798,
      "pan": 2799,
      "reach": 2800,
      "meeting": 2801,
      "BBC": 2802,
      "Russia": 2803,
      "rather": 2804,
      "indust": 2805,
      "witness": 2806,
      "research": 2807,
      "wer": 2808,
      "Red": 2809,
      "Au": 2810,
      "raised": 2811,
      "aging": 2812,
      "ease": 2813,
      "check": 2814,
      "comments": 2815,
      "Bel": 2816,
      "ots": 2817,
      "lect": 2818,
      "hur": 2819,
      "ese": 2820,
      "patients": 2821,
      "ks": 2822,
      "ij": 2823,
      "kept": 2824,
      "message": 2825,
      "driving": 2826,
      "asing": 2827,
      "idea": 2828,
      "election": 2829,
      "firm": 2830,
      "actually": 2831,
      "sell": 2832,
      "student": 2833,
      "Wo": 2834,
      "bag": 2835,
      "driver": 2836,
      "crash": 2837,
      "Wil": 2838,
      "lin": 2839,
      "available": 2840,
      "Lou": 2841,
      "45": 2842,
      "Thom": 2843,
      "project": 2844,
      "ky": 2845,
      "music": 2846,
      "abuse": 2847,
      "ount": 2848,
      "pract": 2849,
      "page": 2850,
      "lymp": 2851,
      "pping": 2852,
      "appoint": 2853,
      "rup": 2854,
      "EO": 2855,
      "looks": 2856,
      "ery": 2857,
      "itional": 2858,
      "Stre": 2859,
      "release": 2860,
      "sear": 2861,
      "train": 2862,
      "wall": 2863,
      "Mor": 2864,
      "ump": 2865,
      "lied": 2866,
      "confirmed": 2867,
      "issues": 2868,
      "attorney": 2869,
      "phy": 2870,
      "Olymp": 2871,
      "Du": 2872,
      "die": 2873,
      "injuries": 2874,
      "Bro": 2875,
      "surpr": 2876,
      "couldn": 2877,
      "discus": 2878,
      "Russian": 2879,
      "cit": 2880,
      "Vic": 2881,
      "wearing": 2882,
      "condu": 2883,
      "bra": 2884,
      "Royal": 2885,
      "Jer": 2886,
      "situation": 2887,
      "pul": 2888,
      "famous": 2889,
      "groups": 2890,
      "buy": 2891,
      "Americans": 2892,
      "assist": 2893,
      "images": 2894,
      "apan": 2895,
      "holiday": 2896,
      "Florida": 2897,
      "crow": 2898,
      "Uk": 2899,
      "mind": 2900,
      "everyone": 2901,
      "cru": 2902,
      "image": 2903,
      "needs": 2904,
      "Ke": 2905,
      "address": 2906,
      "Brazil": 2907,
      "inst": 2908,
      "Cent": 2909,
      "Mal": 2910,
      "35": 2911,
      "termin": 2912,
      "More": 2913,
      "High": 2914,
      "sister": 2915,
      "Prime": 2916,
      "capital": 2917,
      "sun": 2918,
      "terri": 2919,
      "Japan": 2920,
      "ari": 2921,
      "unity": 2922,
      "policy": 2923,
      "areas": 2924,
      "returned": 2925,
      "injured": 2926,
      "giving": 2927,
      "strict": 2928,
      "peri": 2929,
      "hotel": 2930,
      "International": 2931,
      "mob": 2932,
      "ashed": 2933,
      "services": 2934,
      "stage": 2935,
      "beaut": 2936,
      "educ": 2937,
      "Su": 2938,
      "School": 2939,
      "teacher": 2940,
      "else": 2941,
      "These": 2942,
      "English": 2943,
      "single": 2944,
      "audi": 2945,
      "smo": 2946,
      "elect": 2947,
      "Hill": 2948,
      "whole": 2949,
      "begin": 2950,
      "emerg": 2951,
      "Martin": 2952,
      "ify": 2953,
      "cannot": 2954,
      "longer": 2955,
      "yn": 2956,
      "sold": 2957,
      "Prince": 2958,
      "minister": 2959,
      "Hospital": 2960,
      "empt": 2961,
      "itor": 2962,
      "yed": 2963,
      "pressed": 2964,
      "sal": 2965,
      "store": 2966,
      "created": 2967,
      "street": 2968,
      "Labour": 2969,
      "orter": 2970,
      "omin": 2971,
      "Gl": 2972,
      "depart": 2973,
      "ady": 2974,
      "ancial": 2975,
      "drugs": 2976,
      "pressure": 2977,
      "ival": 2978,
      "surger": 2979,
      "roll": 2980,
      "operation": 2981,
      "matter": 2982,
      "boss": 2983,
      "fat": 2984,
      "senior": 2985,
      "deep": 2986,
      "vote": 2987,
      "Pak": 2988,
      "figh": 2989,
      "extra": 2990,
      "separ": 2991,
      "provide": 2992,
      "takes": 2993,
      "undreds": 2994,
      "counts": 2995,
      "Off": 2996,
      "ght": 2997,
      "charac": 2998,
      "winning": 2999,
      "caught": 3000,
      "opport": 3001,
      "cogn": 3002,
      "zing": 3003,
      "period": 3004,
      "owner": 3005,
      "ID": 3006,
      "People": 3007,
      "lands": 3008,
      "minute": 3009,
      "coach": 3010,
      "mental": 3011,
      "elder": 3012,
      "pictures": 3013,
      "Secretary": 3014,
      "ays": 3015,
      "Che": 3016,
      "quite": 3017,
      "Per": 3018,
      "80": 3019,
      "doctors": 3020,
      "Peter": 3021,
      "eye": 3022,
      "Street": 3023,
      "fair": 3024,
      "ows": 3025,
      "west": 3026,
      "vast": 3027,
      "challen": 3028,
      "injury": 3029,
      "comb": 3030,
      "Black": 3031,
      "trip": 3032,
      "individ": 3033,
      "beha": 3034,
      "Tex": 3035,
      "pil": 3036,
      "victory": 3037,
      "fighting": 3038,
      "Os": 3039,
      "ises": 3040,
      "ta": 3041,
      "kick": 3042,
      "Arsenal": 3043,
      "feet": 3044,
      "carried": 3045,
      "Tom": 3046,
      "signific": 3047,
      "cars": 3048,
      "arent": 3049,
      "built": 3050,
      "Scott": 3051,
      "letter": 3052,
      "criminal": 3053,
      "demand": 3054,
      "mist": 3055,
      "chers": 3056,
      "pose": 3057,
      "Cam": 3058,
      "bid": 3059,
      "Part": 3060,
      "however": 3061,
      "ert": 3062,
      "included": 3063,
      "foreign": 3064,
      "biggest": 3065,
      "cult": 3066,
      "total": 3067,
      "warned": 3068,
      "prevent": 3069,
      "continued": 3070,
      "launched": 3071,
      "clim": 3072,
      "region": 3073,
      "Hu": 3074,
      "sem": 3075,
      "refer": 3076,
      "jail": 3077,
      "administr": 3078,
      "table": 3079,
      "Germany": 3080,
      "immigr": 3081,
      "north": 3082,
      "inese": 3083,
      "homes": 3084,
      "pret": 3085,
      "offer": 3086,
      "Val": 3087,
      "bled": 3088,
      "speed": 3089,
      "sion": 3090,
      "states": 3091,
      "engers": 3092,
      "data": 3093,
      "Tur": 3094,
      "ny": 3095,
      "average": 3096,
      "actions": 3097,
      "31": 3098,
      "Bay": 3099,
      "Tra": 3100,
      "estim": 3101,
      "extreme": 3102,
      "ille": 3103,
      "omet": 3104,
      "ends": 3105,
      "performan": 3106,
      "weather": 3107,
      "agency": 3108,
      "east": 3109,
      "journal": 3110,
      "fill": 3111,
      "south": 3112,
      "repe": 3113,
      "ech": 3114,
      "impact": 3115,
      "surve": 3116,
      "sentence": 3117,
      "Australian": 3118,
      "common": 3119,
      "ashion": 3120,
      "ushed": 3121,
      "disease": 3122,
      "Sir": 3123,
      "assault": 3124,
      "emer": 3125,
      "regular": 3126,
      "vill": 3127,
      "direct": 3128,
      "ampions": 3129,
      "goals": 3130,
      "camera": 3131,
      "surgery": 3132,
      "changed": 3133,
      "users": 3134,
      "exam": 3135,
      "date": 3136,
      "brain": 3137,
      "respect": 3138,
      "redu": 3139,
      "phys": 3140,
      "general": 3141,
      "Texas": 3142,
      "mach": 3143,
      "loved": 3144,
      "iant": 3145,
      "price": 3146,
      "battle": 3147,
      "Muslim": 3148,
      "Chinese": 3149,
      "German": 3150,
      "NA": 3151,
      "Jud": 3152,
      "pm": 3153,
      "ti": 3154,
      "quickly": 3155,
      "ift": 3156,
      "request": 3157,
      "Offic": 3158,
      "bs": 3159,
      "scient": 3160,
      "90": 3161,
      "lines": 3162,
      "previous": 3163,
      "behavi": 3164,
      "hon": 3165,
      "although": 3166,
      "sil": 3167,
      "marriage": 3168,
      "Cong": 3169,
      "ander": 3170,
      "create": 3171,
      "instead": 3172,
      "berg": 3173,
      "repor": 3174,
      "2007": 3175,
      "entire": 3176,
      "recover": 3177,
      "source": 3178,
      "Apple": 3179,
      "tur": 3180,
      "share": 3181,
      "counter": 3182,
      "contract": 3183,
      "bridge": 3184,
      "ession": 3185,
      "prep": 3186,
      "occur": 3187,
      "appeal": 3188,
      "previously": 3189,
      "words": 3190,
      "believes": 3191,
      "fle": 3192,
      "lived": 3193,
      "Richard": 3194,
      "HS": 3195,
      "yan": 3196,
      "Government": 3197,
      "mill": 3198,
      "ization": 3199,
      "kids": 3200,
      "joined": 3201,
      "pregn": 3202,
      "financial": 3203,
      "initial": 3204,
      "fected": 3205,
      "significant": 3206,
      "pred": 3207,
      "executive": 3208,
      "female": 3209,
      "Ma": 3210,
      "identified": 3211,
      "ently": 3212,
      "Despite": 3213,
      "mult": 3214,
      "crew": 3215,
      "moving": 3216,
      "icide": 3217,
      "mot": 3218,
      "refused": 3219,
      "airport": 3220,
      "Associ": 3221,
      "appearance": 3222,
      "ara": 3223,
      "Williams": 3224,
      "recogn": 3225,
      "peace": 3226,
      "vehicle": 3227,
      "response": 3228,
      "cat": 3229,
      "immediately": 3230,
      "Port": 3231,
      "pit": 3232,
      "parts": 3233,
      "Sw": 3234,
      "insist": 3235,
      "inton": 3236,
      "vert": 3237,
      "opened": 3238,
      "Ber": 3239,
      "Health": 3240,
      "review": 3241,
      "penal": 3242,
      "ada": 3243,
      "photos": 3244,
      "Queen": 3245,
      "Afghanistan": 3246,
      "contributed": 3247,
      "emy": 3248,
      "passed": 3249,
      "rout": 3250,
      "attention": 3251,
      "ties": 3252,
      "ogle": 3253,
      "probab": 3254,
      "onto": 3255,
      "ado": 3256,
      "isn": 3257,
      "convicted": 3258,
      "tract": 3259,
      "gold": 3260,
      "rate": 3261,
      "inary": 3262,
      "Mill": 3263,
      "Mer": 3264,
      "SA": 3265,
      "Ano": 3266,
      "denied": 3267,
      "size": 3268,
      "demon": 3269,
      "ishing": 3270,
      "ples": 3271,
      "ample": 3272,
      "bes": 3273,
      "Scotland": 3274,
      "actor": 3275,
      "Congress": 3276,
      "technology": 3277,
      "ked": 3278,
      "brand": 3279,
      "damage": 3280,
      "cially": 3281,
      "broad": 3282,
      "floor": 3283,
      "residents": 3284,
      "companies": 3285,
      "Qu": 3286,
      "Sal": 3287,
      "burn": 3288,
      "Another": 3289,
      "ream": 3290,
      "employe": 3291,
      "cup": 3292,
      "spoke": 3293,
      "Council": 3294,
      "conditions": 3295,
      "candid": 3296,
      "rovers": 3297,
      "details": 3298,
      "title": 3299,
      "tom": 3300,
      "ctive": 3301,
      "Republican": 3302,
      "erson": 3303,
      "viron": 3304,
      "African": 3305,
      "scored": 3306,
      "partner": 3307,
      "shock": 3308,
      "prosecu": 3309,
      "hous": 3310,
      "Google": 3311,
      "followed": 3312,
      "Cap": 3313,
      "grad": 3314,
      "cris": 3315,
      "accept": 3316,
      "growing": 3317,
      "Los": 3318,
      "standing": 3319,
      "sof": 3320,
      "events": 3321,
      "tru": 3322,
      "Real": 3323,
      "controvers": 3324,
      "shown": 3325,
      "goes": 3326,
      "faces": 3327,
      "conference": 3328,
      "sleep": 3329,
      "Sto": 3330,
      "herself": 3331,
      "ga": 3332,
      "probably": 3333,
      "Rod": 3334,
      "plant": 3335,
      "block": 3336,
      "gar": 3337,
      "Jackson": 3338,
      "questions": 3339,
      "aim": 3340,
      "restaur": 3341,
      "poor": 3342,
      "avoid": 3343,
      "champion": 3344,
      "itors": 3345,
      "Many": 3346,
      "compu": 3347,
      "focus": 3348,
      "missed": 3349,
      "ably": 3350,
      "served": 3351,
      "agreed": 3352,
      "gets": 3353,
      "Ron": 3354,
      "stone": 3355,
      "32": 3356,
      "published": 3357,
      "rare": 3358,
      "clean": 3359,
      "consider": 3360,
      "wedding": 3361,
      "tem": 3362,
      "noon": 3363,
      "contain": 3364,
      "aves": 3365,
      "load": 3366,
      "Johnson": 3367,
      "economic": 3368,
      "uni": 3369,
      "offered": 3370,
      "either": 3371,
      "towards": 3372,
      "troops": 3373,
      "lack": 3374,
      "border": 3375,
      "newsp": 3376,
      "rupt": 3377,
      "ural": 3378,
      "photograph": 3379,
      "Every": 3380,
      "vent": 3381,
      "owned": 3382,
      "opening": 3383,
      "passengers": 3384,
      "hest": 3385,
      "rang": 3386,
      "oil": 3387,
      "industry": 3388,
      "aring": 3389,
      "skin": 3390,
      "raise": 3391,
      "card": 3392,
      "sou": 3393,
      "ike": 3394,
      "launch": 3395,
      "Office": 3396,
      "cep": 3397,
      "tweet": 3398,
      "II": 3399,
      "Korea": 3400,
      "changes": 3401,
      "deliver": 3402,
      "iled": 3403,
      "results": 3404,
      "customers": 3405,
      "spending": 3406,
      "emergency": 3407,
      "alone": 3408,
      "closed": 3409,
      "Clinton": 3410,
      "apparent": 3411,
      "happen": 3412,
      "lose": 3413,
      "allegations": 3414,
      "finally": 3415,
      "hundreds": 3416,
      "appears": 3417,
      "ancy": 3418,
      "signed": 3419,
      "Dani": 3420,
      "ini": 3421,
      "perfect": 3422,
      "seems": 3423,
      "remember": 3424,
      "Jones": 3425,
      "increase": 3426,
      "espe": 3427,
      "ender": 3428,
      "encour": 3429,
      "especially": 3430,
      "din": 3431,
      "aware": 3432,
      "energy": 3433,
      "laugh": 3434,
      "natur": 3435,
      "enger": 3436,
      "ories": 3437,
      "Madrid": 3438,
      "snow": 3439,
      "stopped": 3440,
      "demonstr": 3441,
      "base": 3442,
      "boys": 3443,
      "olf": 3444,
      "advis": 3445,
      "amount": 3446,
      "33": 3447,
      "Carol": 3448,
      "India": 3449,
      "diag": 3450,
      "Other": 3451,
      "calling": 3452,
      "nu": 3453,
      "indic": 3454,
      "simply": 3455,
      "broke": 3456,
      "drive": 3457,
      "ceed": 3458,
      "jury": 3459,
      "document": 3460,
      "lu": 3461,
      "dangerous": 3462,
      "treated": 3463,
      "197": 3464,
      "weapons": 3465,
      "tran": 3466,
      "iger": 3467,
      "engine": 3468,
      "fan": 3469,
      "riff": 3470,
      "forts": 3471,
      "ively": 3472,
      "adding": 3473,
      "iving": 3474,
      "emot": 3475,
      "speech": 3476,
      "Former": 3477,
      "sense": 3478,
      "figures": 3479,
      "Louis": 3480,
      "bon": 3481,
      "touch": 3482,
      "Mexico": 3483,
      "sec": 3484,
      "cing": 3485,
      "independ": 3486,
      "Bur": 3487,
      "irt": 3488,
      "eyes": 3489,
      "Far": 3490,
      "costs": 3491,
      "Mag": 3492,
      "via": 3493,
      "Center": 3494,
      "Sim": 3495,
      "mater": 3496,
      "fashion": 3497,
      "lawyer": 3498,
      "surround": 3499,
      "aed": 3500,
      "tori": 3501,
      "ordered": 3502,
      "secret": 3503,
      "zer": 3504,
      "irst": 3505,
      "largest": 3506,
      "reportedly": 3507,
      "Of": 3508,
      "ension": 3509,
      "ption": 3510,
      "trust": 3511,
      "considered": 3512,
      "Dis": 3513,
      "iet": 3514,
      "Law": 3515,
      "Kim": 3516,
      "intro": 3517,
      "iction": 3518,
      "Angeles": 3519,
      "ote": 3520,
      "fine": 3521,
      "coast": 3522,
      "diagno": 3523,
      "council": 3524,
      "soldiers": 3525,
      "Gener": 3526,
      "bought": 3527,
      "cash": 3528,
      "moder": 3529,
      "igence": 3530,
      "defin": 3531,
      "challenge": 3532,
      "showing": 3533,
      "sequ": 3534,
      "Sand": 3535,
      "written": 3536,
      "rise": 3537,
      "afternoon": 3538,
      "trou": 3539,
      "rey": 3540,
      "designed": 3541,
      "exc": 3542,
      "sens": 3543,
      "economy": 3544,
      "Our": 3545,
      "gain": 3546,
      "Def": 3547,
      "cohol": 3548,
      "Wales": 3549,
      "cue": 3550,
      "citiz": 3551,
      "Spain": 3552,
      "armed": 3553,
      "aud": 3554,
      "captain": 3555,
      "performance": 3556,
      "tick": 3557,
      "Egy": 3558,
      "Jose": 3559,
      "fa": 3560,
      "Even": 3561,
      "word": 3562,
      "During": 3563,
      "istic": 3564,
      "striker": 3565,
      "introdu": 3566,
      "bass": 3567,
      "uty": 3568,
      "middle": 3569,
      "spect": 3570,
      "poll": 3571,
      "normal": 3572,
      "warning": 3573,
      "antic": 3574,
      "Egypt": 3575,
      "cred": 3576,
      "nearby": 3577,
      "Online": 3578,
      "hero": 3579,
      "Robert": 3580,
      "attempt": 3581,
      "Mel": 3582,
      "effort": 3583,
      "lift": 3584,
      "experts": 3585,
      "broken": 3586,
      "issued": 3587,
      "spread": 3588,
      "related": 3589,
      "girlfriend": 3590,
      "rief": 3591,
      "atory": 3592,
      "ometimes": 3593,
      "evening": 3594,
      "Bill": 3595,
      "La": 3596,
      "alter": 3597,
      "wis": 3598,
      "dete": 3599,
      "aked": 3600,
      "seeing": 3601,
      "emerged": 3602,
      "Author": 3603,
      "quality": 3604,
      "efforts": 3605,
      "schools": 3606,
      "Gar": 3607,
      "television": 3608,
      "ISIS": 3609,
      "character": 3610,
      "aches": 3611,
      "Mary": 3612,
      "adium": 3613,
      "Sport": 3614,
      "Green": 3615,
      "church": 3616,
      "responsible": 3617,
      "concerns": 3618,
      "ountain": 3619,
      "Sur": 3620,
      "unable": 3621,
      "crisis": 3622,
      "arms": 3623,
      "squad": 3624,
      "anda": 3625,
      "animals": 3626,
      "300": 3627,
      "han": 3628,
      "36": 3629,
      "agement": 3630,
      "temper": 3631,
      "bey": 3632,
      "global": 3633,
      "wait": 3634,
      "wouldn": 3635,
      "agre": 3636,
      "true": 3637,
      "ems": 3638,
      "mobile": 3639,
      "possib": 3640,
      "rol": 3641,
      "Andrew": 3642,
      "lower": 3643,
      "charity": 3644,
      "formed": 3645,
      "owners": 3646,
      "rob": 3647,
      "twice": 3648,
      "Fed": 3649,
      "terms": 3650,
      "figure": 3651,
      "rules": 3652,
      "award": 3653,
      "lap": 3654,
      "insur": 3655,
      "spend": 3656,
      "zy": 3657,
      "uk": 3658,
      "save": 3659,
      "suffering": 3660,
      "favour": 3661,
      "Lee": 3662,
      "2006": 3663,
      "eventually": 3664,
      "cop": 3665,
      "Arab": 3666,
      "opportunity": 3667,
      "Van": 3668,
      "stab": 3669,
      "Thomas": 3670,
      "liament": 3671,
      "illa": 3672,
      "necess": 3673,
      "center": 3674,
      "typ": 3675,
      "wish": 3676,
      "orters": 3677,
      "aming": 3678,
      "completely": 3679,
      "ipp": 3680,
      "comfort": 3681,
      "iful": 3682,
      "34": 3683,
      "higher": 3684,
      "Paris": 3685,
      "perform": 3686,
      "Times": 3687,
      "pher": 3688,
      "ears": 3689,
      "fellow": 3690,
      "example": 3691,
      "administration": 3692,
      "jected": 3693,
      "mates": 3694,
      "telling": 3695,
      "flood": 3696,
      "particularly": 3697,
      "successful": 3698,
      "relig": 3699,
      "Ass": 3700,
      "inger": 3701,
      "lay": 3702,
      "animal": 3703,
      "alcohol": 3704,
      "Italy": 3705,
      "feed": 3706,
      "managed": 3707,
      "Reporter": 3708,
      "movie": 3709,
      "neighbor": 3710,
      "iny": 3711,
      "jailed": 3712,
      "push": 3713,
      "Today": 3714,
      "va": 3715,
      "piece": 3716,
      "eper": 3717,
      "Daniel": 3718,
      "ils": 3719,
      "Islamic": 3720,
      "improve": 3721,
      "Wood": 3722,
      "psy": 3723,
      "heavy": 3724,
      "anta": 3725,
      "holding": 3726,
      "aircraft": 3727,
      "meant": 3728,
      "increasing": 3729,
      "estab": 3730,
      "central": 3731,
      "talking": 3732,
      "determin": 3733,
      "gard": 3734,
      "NHS": 3735,
      "lock": 3736,
      "levels": 3737,
      "coll": 3738,
      "influ": 3739,
      "blue": 3740,
      "ram": 3741,
      "ilities": 3742,
      "umb": 3743,
      "bud": 3744,
      "First": 3745,
      "sports": 3746,
      "jobs": 3747,
      "phen": 3748,
      "itche": 3749,
      "anish": 3750,
      "quir": 3751,
      "196": 3752,
      "removed": 3753,
      "asking": 3754,
      "eat": 3755,
      "Pakistan": 3756,
      "newspaper": 3757,
      "prov": 3758,
      "severe": 3759,
      "sentenced": 3760,
      "airs": 3761,
      "justice": 3762,
      "exact": 3763,
      "attacked": 3764,
      "Army": 3765,
      "screen": 3766,
      "send": 3767,
      "fired": 3768,
      "environ": 3769,
      "Vir": 3770,
      "God": 3771,
      "Atl": 3772,
      "streets": 3773,
      "Bal": 3774,
      "owing": 3775,
      "37": 3776,
      "Although": 3777,
      "Justice": 3778,
      "NE": 3779,
      "inson": 3780,
      "gency": 3781,
      "ador": 3782,
      "penalty": 3783,
      "ensure": 3784,
      "Ash": 3785,
      "Senate": 3786,
      "resear": 3787,
      "Harry": 3788,
      "pulled": 3789,
      "wonder": 3790,
      "BI": 3791,
      "McC": 3792,
      "unch": 3793,
      "azine": 3794,
      "conduct": 3795,
      "carrying": 3796,
      "straight": 3797,
      "gang": 3798,
      "General": 3799,
      "struck": 3800,
      "fighters": 3801,
      "defense": 3802,
      "bodies": 3803,
      "stic": 3804,
      "Then": 3805,
      "fourth": 3806,
      "stant": 3807,
      "stitute": 3808,
      "footage": 3809,
      "sites": 3810,
      "ampton": 3811,
      "intell": 3812,
      "communic": 3813,
      "mate": 3814,
      "hopes": 3815,
      "iced": 3816,
      "nuclear": 3817,
      "Sar": 3818,
      "circ": 3819,
      "stars": 3820,
      "deaths": 3821,
      "respond": 3822,
      "Syrian": 3823,
      "wound": 3824,
      "solute": 3825,
      "Both": 3826,
      "isters": 3827,
      "bly": 3828,
      "includes": 3829,
      "angu": 3830,
      "atures": 3831,
      "prosecut": 3832,
      "Det": 3833,
      "doz": 3834,
      "anks": 3835,
      "Watch": 3836,
      "wild": 3837,
      "quarter": 3838,
      "associ": 3839,
      "throughout": 3840,
      "waiting": 3841,
      "Camp": 3842,
      "ucky": 3843,
      "akes": 3844,
      "glass": 3845,
      "remark": 3846,
      "clus": 3847,
      "paper": 3848,
      "crowd": 3849,
      "material": 3850,
      "regard": 3851,
      "accep": 3852,
      "attend": 3853,
      "walking": 3854,
      "burg": 3855,
      "education": 3856,
      "incredi": 3857,
      "song": 3858,
      "join": 3859,
      "reached": 3860,
      "suicide": 3861,
      "numbers": 3862,
      "exist": 3863,
      "supporters": 3864,
      "storm": 3865,
      "repeated": 3866,
      "dig": 3867,
      "omen": 3868,
      "ski": 3869,
      "pup": 3870,
      "text": 3871,
      "doll": 3872,
      "Under": 3873,
      "dream": 3874,
      "dropped": 3875,
      "Crown": 3876,
      "wealth": 3877,
      "planned": 3878,
      "Tal": 3879,
      "dogs": 3880,
      "ider": 3881,
      "Jon": 3882,
      "Judge": 3883,
      "struction": 3884,
      "natural": 3885,
      "Mat": 3886,
      "older": 3887,
      "pretty": 3888,
      "var": 3889,
      "Adam": 3890,
      "laws": 3891,
      "transfer": 3892,
      "itself": 3893,
      "vor": 3894,
      "places": 3895,
      "version": 3896,
      "unk": 3897,
      "competition": 3898,
      "Super": 3899,
      "destro": 3900,
      "Franc": 3901,
      "Hel": 3902,
      "bedroom": 3903,
      "dad": 3904,
      "concerned": 3905,
      "documents": 3906,
      "millions": 3907,
      "Act": 3908,
      "hib": 3909,
      "oph": 3910,
      "ience": 3911,
      "Star": 3912,
      "Union": 3913,
      "Since": 3914,
      "38": 3915,
      "sale": 3916,
      "boat": 3917,
      "boo": 3918,
      "stitut": 3919,
      "attract": 3920,
      "mouth": 3921,
      "century": 3922,
      "fee": 3923,
      "rape": 3924,
      "ours": 3925,
      "feeling": 3926,
      "sort": 3927,
      "population": 3928,
      "oul": 3929,
      "guest": 3930,
      "reporters": 3931,
      "selling": 3932,
      "doub": 3933,
      "worst": 3934,
      "Fam": 3935,
      "sor": 3936,
      "messages": 3937,
      "highest": 3938,
      "positive": 3939,
      "Syd": 3940,
      "spl": 3941,
      "Most": 3942,
      "prim": 3943,
      "44": 3944,
      "ctors": 3945,
      "owers": 3946,
      "apolog": 3947,
      "Good": 3948,
      "products": 3949,
      "decades": 3950,
      "green": 3951,
      "display": 3952,
      "faced": 3953,
      "cerem": 3954,
      "Barcel": 3955,
      "nel": 3956,
      "Francis": 3957,
      "easy": 3958,
      "shut": 3959,
      "Sydney": 3960,
      "suggested": 3961,
      "reli": 3962,
      "Barcelona": 3963,
      "Jim": 3964,
      "network": 3965,
      "Earth": 3966,
      "resh": 3967,
      "sales": 3968,
      "raine": 3969,
      "winner": 3970,
      "type": 3971,
      "rif": 3972,
      "thes": 3973,
      "Ital": 3974,
      "inno": 3975,
      "prior": 3976,
      "Old": 3977,
      "haps": 3978,
      "aste": 3979,
      "benefits": 3980,
      "usual": 3981,
      "planning": 3982,
      "plead": 3983,
      "bility": 3984,
      "sche": 3985,
      "otel": 3986,
      "Champions": 3987,
      "majority": 3988,
      "ba": 3989,
      "swe": 3990,
      "computer": 3991,
      "double": 3992,
      "fly": 3993,
      "collection": 3994,
      "occas": 3995,
      "names": 3996,
      "Security": 3997,
      "original": 3998,
      "iple": 3999,
      "55": 4000,
      "?'": 4001,
      "istry": 4002,
      "gay": 4003,
      "apartment": 4004,
      "Bor": 4005,
      "aine": 4006,
      "Den": 4007,
      "helping": 4008,
      "captured": 4009,
      "Lord": 4010,
      "appropri": 4011,
      "absolute": 4012,
      "dark": 4013,
      "ya": 4014,
      "healthy": 4015,
      "hun": 4016,
      "slow": 4017,
      "47": 4018,
      "castle": 4019,
      "approach": 4020,
      "illegal": 4021,
      "48": 4022,
      "iev": 4023,
      "gry": 4024,
      "reform": 4025,
      "strike": 4026,
      "progress": 4027,
      "presidential": 4028,
      "guard": 4029,
      "opposition": 4030,
      "claiming": 4031,
      "Service": 4032,
      "Pri": 4033,
      "err": 4034,
      "talks": 4035,
      "island": 4036,
      "useum": 4037,
      "Barack": 4038,
      "abor": 4039,
      "scor": 4040,
      "Virgin": 4041,
      "Met": 4042,
      "hid": 4043,
      "jum": 4044,
      "handed": 4045,
      "lic": 4046,
      "becoming": 4047,
      "nes": 4048,
      "flag": 4049,
      "myself": 4050,
      "opin": 4051,
      "struct": 4052,
      "rend": 4053,
      "sky": 4054,
      "affected": 4055,
      "2005": 4056,
      "hang": 4057,
      "chairman": 4058,
      "teams": 4059,
      "Middle": 4060,
      "Steve": 4061,
      "hum": 4062,
      "Ram": 4063,
      "deg": 4064,
      "Bir": 4065,
      "seat": 4066,
      "male": 4067,
      "uled": 4068,
      "whom": 4069,
      "ips": 4070,
      "watching": 4071,
      "ights": 4072,
      "alongside": 4073,
      "Child": 4074,
      "massive": 4075,
      "39": 4076,
      "stress": 4077,
      "Gra": 4078,
      "ield": 4079,
      "compared": 4080,
      "shared": 4081,
      "beautiful": 4082,
      "Party": 4083,
      "Resear": 4084,
      "devast": 4085,
      "Italian": 4086,
      "usually": 4087,
      "Wal": 4088,
      "symp": 4089,
      "bury": 4090,
      "Republicans": 4091,
      "EU": 4092,
      "mir": 4093,
      "era": 4094,
      "Frank": 4095,
      "freed": 4096,
      "Kel": 4097,
      "development": 4098,
      "icles": 4099,
      "acked": 4100,
      "degree": 4101,
      "veter": 4102,
      "FBI": 4103,
      "gg": 4104,
      "VID": 4105,
      "ustr": 4106,
      "ements": 4107,
      "Bu": 4108,
      "Victo": 4109,
      "comed": 4110,
      "records": 4111,
      "conserv": 4112,
      "insp": 4113,
      "isl": 4114,
      "confl": 4115,
      "patient": 4116,
      "Nick": 4117,
      "filed": 4118,
      "facing": 4119,
      "oked": 4120,
      "neighbour": 4121,
      "smart": 4122,
      "iment": 4123,
      "subject": 4124,
      "anch": 4125,
      "Bush": 4126,
      "features": 4127,
      "erc": 4128,
      "Argent": 4129,
      "maintain": 4130,
      "swim": 4131,
      "Sus": 4132,
      "learn": 4133,
      "debate": 4134,
      "professional": 4135,
      "stick": 4136,
      "Ga": 4137,
      "ka": 4138,
      "99": 4139,
      "42": 4140,
      "Gold": 4141,
      "VIDEO": 4142,
      "ruled": 4143,
      "Mean": 4144,
      "continues": 4145,
      "Ve": 4146,
      "starting": 4147,
      "fielder": 4148,
      "ande": 4149,
      "fied": 4150,
      "From": 4151,
      "linked": 4152,
      "Post": 4153,
      "custody": 4154,
      "tourn": 4155,
      "losing": 4156,
      "Big": 4157,
      "spark": 4158,
      "Ryan": 4159,
      "explained": 4160,
      "restaurant": 4161,
      "Commission": 4162,
      "afford": 4163,
      "defeat": 4164,
      "bow": 4165,
      "Kar": 4166,
      "Tim": 4167,
      "rev": 4168,
      "Holly": 4169,
      "fant": 4170,
      "Their": 4171,
      "Chief": 4172,
      "Charles": 4173,
      "insisted": 4174,
      "nur": 4175,
      "league": 4176,
      "Prof": 4177,
      "Georg": 4178,
      "magazine": 4179,
      "Web": 4180,
      "certainly": 4181,
      "sound": 4182,
      "Three": 4183,
      "pression": 4184,
      "seemed": 4185,
      "unders": 4186,
      "active": 4187,
      "tack": 4188,
      "extremely": 4189,
      "Murray": 4190,
      "Spanish": 4191,
      "ological": 4192,
      "Dar": 4193,
      "fare": 4194,
      "Oh": 4195,
      "committed": 4196,
      "reasons": 4197,
      "fish": 4198,
      "stren": 4199,
      "putting": 4200,
      "lif": 4201,
      "rich": 4202,
      "beach": 4203,
      "Comm": 4204,
      "Tay": 4205,
      "CC": 4206,
      "Olympic": 4207,
      "modern": 4208,
      "Ari": 4209,
      "thinking": 4210,
      "ateg": 4211,
      "choice": 4212,
      "Wat": 4213,
      "medic": 4214,
      "MailOnline": 4215,
      "andal": 4216,
      "ito": 4217,
      "dict": 4218,
      "device": 4219,
      "advert": 4220,
      "department": 4221,
      "Cur": 4222,
      "particip": 4223,
      "Del": 4224,
      "specific": 4225,
      "stun": 4226,
      "minor": 4227,
      "Ukraine": 4228,
      "bath": 4229,
      "tests": 4230,
      "truck": 4231,
      "receive": 4232,
      "yl": 4233,
      "histor": 4234,
      "rebel": 4235,
      "internet": 4236,
      "breaking": 4237,
      "’,": 4238,
      "eating": 4239,
      "ville": 4240,
      "Tri": 4241,
      "below": 4242,
      "400": 4243,
      "sometimes": 4244,
      "Romney": 4245,
      "auto": 4246,
      "attended": 4247,
      "shel": 4248,
      "provided": 4249,
      "causing": 4250,
      "Fin": 4251,
      "Hen": 4252,
      "teenager": 4253,
      "Meanwhile": 4254,
      "langu": 4255,
      "violent": 4256,
      "ses": 4257,
      "affect": 4258,
      "Mac": 4259,
      "clearly": 4260,
      "san": 4261,
      "native": 4262,
      "signs": 4263,
      "runs": 4264,
      "drop": 4265,
      "cold": 4266,
      "scr": 4267,
      "Christian": 4268,
      "sick": 4269,
      "walked": 4270,
      "investigators": 4271,
      "bola": 4272,
      "rep": 4273,
      "discover": 4274,
      "village": 4275,
      "announce": 4276,
      "ape": 4277,
      "proud": 4278,
      "Qaed": 4279,
      "Qaeda": 4280,
      "expressed": 4281,
      "rig": 4282,
      "estimated": 4283,
      "serving": 4284,
      "flat": 4285,
      "Rad": 4286,
      "spotted": 4287,
      "Ever": 4288,
      "ission": 4289,
      "kno": 4290,
      "Association": 4291,
      "origin": 4292,
      "pled": 4293,
      "sters": 4294,
      "phones": 4295,
      "suspic": 4296,
      "radio": 4297,
      "dome": 4298,
      "brief": 4299,
      "intelligence": 4300,
      "neck": 4301,
      "Sci": 4302,
      "boyfriend": 4303,
      "sets": 4304,
      "views": 4305,
      "pregnant": 4306,
      "Colle": 4307,
      "streng": 4308,
      "rick": 4309,
      "suspended": 4310,
      "Som": 4311,
      ".,": 4312,
      "Str": 4313,
      "andon": 4314,
      "Open": 4315,
      "Shar": 4316,
      "stag": 4317,
      "cities": 4318,
      "traffic": 4319,
      "46": 4320,
      "lets": 4321,
      "goti": 4322,
      "scientists": 4323,
      "xim": 4324,
      "window": 4325,
      "tough": 4326,
      "Rober": 4327,
      "mous": 4328,
      "visited": 4329,
      "acqu": 4330,
      "enforce": 4331,
      "agers": 4332,
      "Palace": 4333,
      "giant": 4334,
      "lad": 4335,
      "Ire": 4336,
      "serve": 4337,
      "breast": 4338,
      "Over": 4339,
      "RA": 4340,
      "Ebola": 4341,
      "Dun": 4342,
      "midfielder": 4343,
      "Press": 4344,
      "immigration": 4345,
      "flying": 4346,
      "college": 4347,
      "keeper": 4348,
      "fortun": 4349,
      "Church": 4350,
      "2004": 4351,
      "controll": 4352,
      "therap": 4353,
      "psych": 4354,
      "exerc": 4355,
      "resol": 4356,
      "49": 4357,
      "zz": 4358,
      "ires": 4359,
      "Sil": 4360,
      "apparently": 4361,
      "Joe": 4362,
      "hose": 4363,
      "Hall": 4364,
      "rescue": 4365,
      "items": 4366,
      "legisl": 4367,
      "Fore": 4368,
      "pin": 4369,
      "Ty": 4370,
      "igan": 4371,
      "?\"": 4372,
      "Boston": 4373,
      "govern": 4374,
      "annual": 4375,
      "annel": 4376,
      "reality": 4377,
      "prices": 4378,
      "Home": 4379,
      "individual": 4380,
      "occurred": 4381,
      "rug": 4382,
      "decade": 4383,
      "Bob": 4384,
      "Tot": 4385,
      "pleaded": 4386,
      "banned": 4387,
      "neg": 4388,
      "clin": 4389,
      "fuel": 4390,
      "negoti": 4391,
      "Speaking": 4392,
      "Kate": 4393,
      "developed": 4394,
      "knows": 4395,
      "ceremony": 4396,
      "growth": 4397,
      "utch": 4398,
      "object": 4399,
      "beyond": 4400,
      "tt": 4401,
      "iles": 4402,
      "43": 4403,
      "practice": 4404,
      "Grand": 4405,
      "increased": 4406,
      "oo": 4407,
      "enjoy": 4408,
      "lux": 4409,
      "bottom": 4410,
      "hurt": 4411,
      "protesters": 4412,
      "bling": 4413,
      "makers": 4414,
      "lights": 4415,
      "loan": 4416,
      "ledge": 4417,
      "sta": 4418,
      "researchers": 4419,
      "sight": 4420,
      "Newcastle": 4421,
      "ena": 4422,
      "operations": 4423,
      "CA": 4424,
      "terrorist": 4425,
      "worker": 4426,
      "younger": 4427,
      "temp": 4428,
      "traditional": 4429,
      "inho": 4430,
      "recomm": 4431,
      "crimes": 4432,
      "Put": 4433,
      "75": 4434,
      "Bank": 4435,
      "Pet": 4436,
      "fal": 4437,
      "Ir": 4438,
      "Sol": 4439,
      "NEW": 4440,
      "watched": 4441,
      "Group": 4442,
      "alive": 4443,
      "attempted": 4444,
      "pounds": 4445,
      "arian": 4446,
      "pilot": 4447,
      "Mass": 4448,
      "Liby": 4449,
      "agreement": 4450,
      "answer": 4451,
      "rog": 4452,
      "bail": 4453,
      "mail": 4454,
      "parties": 4455,
      "sitting": 4456,
      "icop": 4457,
      "arily": 4458,
      "wing": 4459,
      "speaking": 4460,
      "Eli": 4461,
      "path": 4462,
      "Ev": 4463,
      "Im": 4464,
      "Kent": 4465,
      "favor": 4466,
      "bell": 4467,
      "len": 4468,
      "suspected": 4469,
      "politic": 4470,
      "employees": 4471,
      "diagnosed": 4472,
      "resign": 4473,
      "sad": 4474,
      "keeping": 4475,
      "fraud": 4476,
      "voters": 4477,
      "obv": 4478,
      "Democrats": 4479,
      "Brook": 4480,
      "sched": 4481,
      "deli": 4482,
      "discuss": 4483,
      "movement": 4484,
      "Taylor": 4485,
      "Brad": 4486,
      "value": 4487,
      "thy": 4488,
      "regime": 4489,
      "imag": 4490,
      "confident": 4491,
      "Island": 4492,
      "fest": 4493,
      "controversial": 4494,
      "amazing": 4495,
      "culture": 4496,
      "responsibility": 4497,
      "transport": 4498,
      "toms": 4499,
      "41": 4500,
      "fresh": 4501,
      "expert": 4502,
      "alys": 4503,
      "catch": 4504,
      "Wel": 4505,
      "spokeswoman": 4506,
      "Democratic": 4507,
      "mad": 4508,
      "investigating": 4509,
      "Tor": 4510,
      "Youn": 4511,
      "concern": 4512,
      "cul": 4513,
      "profile": 4514,
      "behaviour": 4515,
      "ulted": 4516,
      "birthday": 4517,
      "picked": 4518,
      "kins": 4519,
      "Indian": 4520,
      "River": 4521,
      "learned": 4522,
      "finding": 4523,
      "appropriate": 4524,
      "drinking": 4525,
      "tic": 4526,
      "mond": 4527,
      "cean": 4528,
      "conflict": 4529,
      "tournament": 4530,
      "ki": 4531,
      "initially": 4532,
      "hoping": 4533,
      "shirt": 4534,
      "society": 4535,
      "dram": 4536,
      "Ra": 4537,
      "accus": 4538,
      "setting": 4539,
      "ER": 4540,
      "Jersey": 4541,
      "powerful": 4542,
      "beginning": 4543,
      "convers": 4544,
      "Hor": 4545,
      "motor": 4546,
      "Ba": 4547,
      "Kat": 4548,
      "Cla": 4549,
      "holds": 4550,
      "seeking": 4551,
      "Mike": 4552,
      "purch": 4553,
      "ula": 4554,
      "disappoint": 4555,
      "steps": 4556,
      "physical": 4557,
      "ases": 4558,
      "aker": 4559,
      "scen": 4560,
      "remained": 4561,
      "pray": 4562,
      "university": 4563,
      "grab": 4564,
      "ruling": 4565,
      "Why": 4566,
      "ships": 4567,
      "Ha": 4568,
      "voice": 4569,
      "iPh": 4570,
      "challeng": 4571,
      "harm": 4572,
      "Wall": 4573,
      "venue": 4574,
      "meaning": 4575,
      "journey": 4576,
      "yes": 4577,
      "Wilson": 4578,
      "books": 4579,
      "Ireland": 4580,
      "prepared": 4581,
      "necessary": 4582,
      "finished": 4583,
      "proced": 4584,
      "Those": 4585,
      "heav": 4586,
      "divor": 4587,
      "Gree": 4588,
      "iling": 4589,
      "dom": 4590,
      "broadcast": 4591,
      "rough": 4592,
      "committee": 4593,
      "Ze": 4594,
      "angers": 4595,
      "tree": 4596,
      "Prose": 4597,
      "deser": 4598,
      "highly": 4599,
      "tenham": 4600,
      "mph": 4601,
      "gives": 4602,
      "Down": 4603,
      "Cast": 4604,
      "domestic": 4605,
      "Ter": 4606,
      "Chic": 4607,
      "determined": 4608,
      "mical": 4609,
      "print": 4610,
      "lement": 4611,
      "Ko": 4612,
      "threatened": 4613,
      "cab": 4614,
      "fix": 4615,
      "agic": 4616,
      "budget": 4617,
      "Commit": 4618,
      "promot": 4619,
      "Well": 4620,
      "Champion": 4621,
      "shots": 4622,
      "commission": 4623,
      "guy": 4624,
      "blog": 4625,
      "exactly": 4626,
      "propos": 4627,
      "hall": 4628,
      "ni": 4629,
      "':": 4630,
      "izing": 4631,
      "Moham": 4632,
      "singer": 4633,
      "shortly": 4634,
      "ordan": 4635,
      "uded": 4636,
      "bott": 4637,
      "Stephen": 4638,
      "Holl": 4639,
      "evin": 4640,
      "thered": 4641,
      "PR": 4642,
      "Korean": 4643,
      "Israeli": 4644,
      "activity": 4645,
      "protests": 4646,
      "doubt": 4647,
      "ola": 4648,
      "oking": 4649,
      "yle": 4650,
      "Penn": 4651,
      "rooms": 4652,
      "worse": 4653,
      "measures": 4654,
      "note": 4655,
      "absolutely": 4656,
      "mile": 4657,
      "consum": 4658,
      "reck": 4659,
      "separate": 4660,
      "Authorities": 4661,
      "Common": 4662,
      "Anth": 4663,
      "tweeted": 4664,
      "iel": 4665,
      "instru": 4666,
      "ented": 4667,
      "tribut": 4668,
      "agues": 4669,
      "ifth": 4670,
      "GO": 4671,
      "Western": 4672,
      "prosecutors": 4673,
      "Tony": 4674,
      "essed": 4675,
      "photographer": 4676,
      "Profess": 4677,
      "uals": 4678,
      "nar": 4679,
      "required": 4680,
      "complex": 4681,
      "daily": 4682,
      "ultim": 4683,
      "Coast": 4684,
      "Harris": 4685,
      "multiple": 4686,
      "ieve": 4687,
      "Sarah": 4688,
      "circum": 4689,
      "seconds": 4690,
      "raising": 4691,
      "Fire": 4692,
      "Invest": 4693,
      "mix": 4694,
      "Victoria": 4695,
      "scandal": 4696,
      "regul": 4697,
      "mountain": 4698,
      "cuts": 4699,
      "aries": 4700,
      "estate": 4701,
      "bum": 4702,
      "150": 4703,
      "unte": 4704,
      "haven": 4705,
      "memor": 4706,
      "location": 4707,
      "Cra": 4708,
      "Bla": 4709,
      "clothes": 4710,
      "Liber": 4711,
      "Distr": 4712,
      "hi": 4713,
      "Sky": 4714,
      "paying": 4715,
      "ders": 4716,
      "upon": 4717,
      "helicop": 4718,
      "addition": 4719,
      "Di": 4720,
      "gers": 4721,
      "stitution": 4722,
      "IA": 4723,
      "stock": 4724,
      "enforcement": 4725,
      "sons": 4726,
      "migr": 4727,
      "agedy": 4728,
      "critical": 4729,
      "da": 4730,
      "log": 4731,
      "user": 4732,
      "wick": 4733,
      "northern": 4734,
      "analy": 4735,
      "attle": 4736,
      "ites": 4737,
      "fection": 4738,
      "kidn": 4739,
      "fled": 4740,
      "commer": 4741,
      "expensive": 4742,
      "Georgia": 4743,
      "Games": 4744,
      "belong": 4745,
      "legs": 4746,
      "Anthony": 4747,
      "Up": 4748,
      "ett": 4749,
      "lyn": 4750,
      "actress": 4751,
      "District": 4752,
      "stands": 4753,
      "agree": 4754,
      "Great": 4755,
      "district": 4756,
      "LA": 4757,
      "breath": 4758,
      "offers": 4759,
      "Fox": 4760,
      "mes": 4761,
      "visitors": 4762,
      "Chicago": 4763,
      "oured": 4764,
      "ids": 4765,
      "ero": 4766,
      "desper": 4767,
      "ilton": 4768,
      "programme": 4769,
      "reser": 4770,
      "rank": 4771,
      "ota": 4772,
      "iban": 4773,
      "shocked": 4774,
      "sides": 4775,
      "simple": 4776,
      "65": 4777,
      "chemical": 4778,
      "prepar": 4779,
      "crack": 4780,
      "option": 4781,
      "rum": 4782,
      "Committee": 4783,
      "yell": 4784,
      "stances": 4785,
      "scheduled": 4786,
      "Hollywood": 4787,
      "anted": 4788,
      "wheel": 4789,
      "spoken": 4790,
      "artist": 4791,
      "consc": 4792,
      "Jordan": 4793,
      "Four": 4794,
      "!'": 4795,
      "Taliban": 4796,
      "Family": 4797,
      "Year": 4798,
      "recorded": 4799,
      "sole": 4800,
      "inspired": 4801,
      "defender": 4802,
      "Cal": 4803,
      "rates": 4804,
      "Dev": 4805,
      "rage": 4806,
      "duty": 4807,
      "ously": 4808,
      "08": 4809,
      "....": 4810,
      "require": 4811,
      "eless": 4812,
      "Way": 4813,
      "Lam": 4814,
      "Simon": 4815,
      "Read": 4816,
      "Haw": 4817,
      "vehicles": 4818,
      "isation": 4819,
      "plom": 4820,
      "pitch": 4821,
      "Carolina": 4822,
      "toward": 4823,
      "anced": 4824,
      "arez": 4825,
      "hat": 4826,
      "illness": 4827,
      "2003": 4828,
      "eth": 4829,
      "scoring": 4830,
      "sud": 4831,
      "Young": 4832,
      "language": 4833,
      "various": 4834,
      "cape": 4835,
      "sts": 4836,
      "beaten": 4837,
      "rule": 4838,
      "winter": 4839,
      "amid": 4840,
      "disput": 4841,
      "Tory": 4842,
      "defence": 4843,
      "itt": 4844,
      "seriously": 4845,
      "stories": 4846,
      "ashes": 4847,
      "acting": 4848,
      "Road": 4849,
      "aling": 4850,
      "applic": 4851,
      "willing": 4852,
      "ancing": 4853,
      "thanks": 4854,
      "warm": 4855,
      "southern": 4856,
      "organization": 4857,
      "false": 4858,
      "Gaal": 4859,
      "52": 4860,
      "acts": 4861,
      "hole": 4862,
      "ctic": 4863,
      "Here": 4864,
      "youth": 4865,
      "session": 4866,
      "eds": 4867,
      "inde": 4868,
      "confidence": 4869,
      "acted": 4870,
      "bound": 4871,
      "Palest": 4872,
      "Sa": 4873,
      "bin": 4874,
      "icon": 4875,
      "Andy": 4876,
      "Mess": 4877,
      "corre": 4878,
      "difference": 4879,
      "nature": 4880,
      "accom": 4881,
      "meth": 4882,
      "Tube": 4883,
      "Follow": 4884,
      "earth": 4885,
      "credit": 4886,
      "equip": 4887,
      "isto": 4888,
      "horse": 4889,
      "leng": 4890,
      "Canada": 4891,
      "perhaps": 4892,
      "virus": 4893,
      "produced": 4894,
      "sources": 4895,
      "matches": 4896,
      "survey": 4897,
      "encing": 4898,
      "agon": 4899,
      "partners": 4900,
      "cro": 4901,
      "Internet": 4902,
      "Earlier": 4903,
      "bear": 4904,
      "Mour": 4905,
      "trade": 4906,
      "Virginia": 4907,
      "Steven": 4908,
      "Die": 4909,
      "Lewis": 4910,
      "religious": 4911,
      "iana": 4912,
      "BA": 4913,
      "Jenn": 4914,
      "deput": 4915,
      "recovery": 4916,
      "insurance": 4917,
      "dia": 4918,
      "anny": 4919,
      "stret": 4920,
      "iPhone": 4921,
      "Airport": 4922,
      "unit": 4923,
      "prove": 4924,
      "videos": 4925,
      "Before": 4926,
      "rub": 4927,
      "bac": 4928,
      "army": 4929,
      "benefit": 4930,
      "athan": 4931,
      "relative": 4932,
      "Michel": 4933,
      "ON": 4934,
      "Gal": 4935,
      "prime": 4936,
      "remove": 4937,
      "cou": 4938,
      "apped": 4939,
      "citizens": 4940,
      "writing": 4941,
      "delay": 4942,
      "royal": 4943,
      "surface": 4944,
      "advice": 4945,
      "Play": 4946,
      "independent": 4947,
      "Beck": 4948,
      "ordinary": 4949,
      "skill": 4950,
      "filled": 4951,
      "Ferg": 4952,
      "encies": 4953,
      "rising": 4954,
      "responded": 4955,
      "IN": 4956,
      "lip": 4957,
      "batter": 4958,
      "Eric": 4959,
      "clubs": 4960,
      "mort": 4961,
      "repeatedly": 4962,
      "uge": 4963,
      "diet": 4964,
      "College": 4965,
      "eman": 4966,
      "trig": 4967,
      "Foot": 4968,
      "Gor": 4969,
      "cool": 4970,
      "Tottenham": 4971,
      "stuff": 4972,
      "Out": 4973,
      "shopping": 4974,
      "escape": 4975,
      "finish": 4976,
      "candidate": 4977,
      "cry": 4978,
      "sudden": 4979,
      "Club": 4980,
      "owed": 4981,
      "urning": 4982,
      "apart": 4983,
      "Cle": 4984,
      "Kevin": 4985,
      "soft": 4986,
      "ources": 4987,
      "production": 4988,
      "Matt": 4989,
      "equipment": 4990,
      "score": 4991,
      "Niger": 4992,
      "fifth": 4993,
      "agent": 4994,
      "abandon": 4995,
      "drivers": 4996,
      "beg": 4997,
      "article": 4998,
      "achieve": 4999,
      "garden": 5000,
      "IC": 5001,
      "inquir": 5002,
      "changing": 5003,
      "file": 5004,
      "leadership": 5005,
      "Foreign": 5006,
      "nice": 5007,
      "volunte": 5008,
      "promp": 5009,
      "MPs": 5010,
      "trouble": 5011,
      "Let": 5012,
      "answ": 5013,
      "allowing": 5014,
      "feature": 5015,
      "0s": 5016,
      "Investig": 5017,
      "ox": 5018,
      "hab": 5019,
      "advant": 5020,
      "Ox": 5021,
      "stood": 5022,
      "declared": 5023,
      "Found": 5024,
      "Net": 5025,
      "zone": 5026,
      "53": 5027,
      "ials": 5028,
      "mum": 5029,
      "freedom": 5030,
      "bles": 5031,
      "definite": 5032,
      "Sav": 5033,
      "iff": 5034,
      "failure": 5035,
      "Central": 5036,
      "kne": 5037,
      "Cambridge": 5038,
      "union": 5039,
      "directly": 5040,
      "fears": 5041,
      "diplom": 5042,
      "igg": 5043,
      "heat": 5044,
      "Donald": 5045,
      "pull": 5046,
      "Lau": 5047,
      "incess": 5048,
      "Maria": 5049,
      "Ali": 5050,
      "secretary": 5051,
      "funeral": 5052,
      "Es": 5053,
      "connection": 5054,
      "Human": 5055,
      "56": 5056,
      "blast": 5057,
      "limited": 5058,
      "Professor": 5059,
      "emotional": 5060,
      "OR": 5061,
      "content": 5062,
      "CEO": 5063,
      "Win": 5064,
      "IP": 5065,
      "ufact": 5066,
      "debut": 5067,
      "voted": 5068,
      "secure": 5069,
      "Jeff": 5070,
      "declined": 5071,
      "angry": 5072,
      "itation": 5073,
      "Sou": 5074,
      "infl": 5075,
      "wich": 5076,
      "obtain": 5077,
      "kin": 5078,
      "except": 5079,
      "iation": 5080,
      "therapy": 5081,
      "located": 5082,
      "Fergus": 5083,
      "Bol": 5084,
      "Attorney": 5085,
      "targeted": 5086,
      "settle": 5087,
      "scale": 5088,
      "electric": 5089,
      "ares": 5090,
      "2015": 5091,
      "lawsuit": 5092,
      "Squ": 5093,
      "tort": 5094,
      "Conserv": 5095,
      "chain": 5096,
      "ko": 5097,
      "decis": 5098,
      "celebrate": 5099,
      "BS": 5100,
      "dinner": 5101,
      "Dou": 5102,
      "barr": 5103,
      "wise": 5104,
      "bringing": 5105,
      "Kenned": 5106,
      "hasn": 5107,
      "gradu": 5108,
      "unique": 5109,
      "income": 5110,
      "Turkey": 5111,
      "ano": 5112,
      "ume": 5113,
      "faith": 5114,
      "contest": 5115,
      "nut": 5116,
      "minim": 5117,
      "isa": 5118,
      "colleagues": 5119,
      "measure": 5120,
      "54": 5121,
      "600": 5122,
      "2001": 5123,
      "pla": 5124,
      "ole": 5125,
      "corpor": 5126,
      "struggling": 5127,
      "Nations": 5128,
      "cused": 5129,
      "ulting": 5130,
      "wake": 5131,
      "cks": 5132,
      "wart": 5133,
      "status": 5134,
      "photographs": 5135,
      "sust": 5136,
      "acknow": 5137,
      "entered": 5138,
      "Instead": 5139,
      "dated": 5140,
      "Kelly": 5141,
      "emen": 5142,
      "accounts": 5143,
      "urged": 5144,
      "plast": 5145,
      "sive": 5146,
      "worried": 5147,
      "vul": 5148,
      "Stu": 5149,
      "Walk": 5150,
      "register": 5151,
      "houses": 5152,
      "alled": 5153,
      "oner": 5154,
      "lawyers": 5155,
      "57": 5156,
      "surprise": 5157,
      "thew": 5158,
      "politics": 5159,
      "Once": 5160,
      "map": 5161,
      "tells": 5162,
      "tum": 5163,
      "Ah": 5164,
      "ching": 5165,
      "spit": 5166,
      "Tha": 5167,
      "bulance": 5168,
      "Cha": 5169,
      "ensions": 5170,
      "Bow": 5171,
      "signing": 5172,
      "Ferguson": 5173,
      "Kennedy": 5174,
      "graph": 5175,
      "terrorism": 5176,
      "FI": 5177,
      "mention": 5178,
      "ification": 5179,
      "monitor": 5180,
      "Prosecu": 5181,
      "mic": 5182,
      "stal": 5183,
      "Palestin": 5184,
      "surge": 5185,
      "mingham": 5186,
      "wore": 5187,
      "YouTube": 5188,
      "Rog": 5189,
      "guests": 5190,
      "boost": 5191,
      "luxury": 5192,
      "adm": 5193,
      "gri": 5194,
      "Children": 5195,
      "chess": 5196,
      "split": 5197,
      "beth": 5198,
      "passenger": 5199,
      "Birmingham": 5200,
      "Fort": 5201,
      "flights": 5202,
      "posing": 5203,
      "Morgan": 5204,
      "amin": 5205,
      "sand": 5206,
      "dating": 5207,
      "Putin": 5208,
      "frequ": 5209,
      "Southampton": 5210,
      "offering": 5211,
      "Sea": 5212,
      "pir": 5213,
      "commercial": 5214,
      "Ray": 5215,
      "Jam": 5216,
      "reduce": 5217,
      "strikes": 5218,
      "poses": 5219,
      "ji": 5220,
      "mayor": 5221,
      "roy": 5222,
      "corner": 5223,
      "comfortable": 5224,
      "stern": 5225,
      "MA": 5226,
      "lucky": 5227,
      "supposed": 5228,
      "environment": 5229,
      "moon": 5230,
      "Long": 5231,
      "returning": 5232,
      "51": 5233,
      "Ariz": 5234,
      "devices": 5235,
      "moments": 5236,
      "alition": 5237,
      "militants": 5238,
      "Ver": 5239,
      "falling": 5240,
      "audience": 5241,
      "Pan": 5242,
      "Dor": 5243,
      "Roberts": 5244,
      "Supreme": 5245,
      "elections": 5246,
      "zed": 5247,
      "resort": 5248,
      "tragedy": 5249,
      "headed": 5250,
      "founder": 5251,
      "IV": 5252,
      "heads": 5253,
      "manufact": 5254,
      "GP": 5255,
      "Er": 5256,
      "introduced": 5257,
      "58": 5258,
      "grew": 5259,
      "turning": 5260,
      "confirm": 5261,
      "machine": 5262,
      "nie": 5263,
      "criticism": 5264,
      "impress": 5265,
      "carri": 5266,
      "seas": 5267,
      "Mir": 5268,
      "consist": 5269,
      "guns": 5270,
      "Tre": 5271,
      "questioned": 5272,
      "Dire": 5273,
      "nis": 5274,
      "buildings": 5275,
      "river": 5276,
      "assistant": 5277,
      "knife": 5278,
      "Ru": 5279,
      "cin": 5280,
      "awa": 5281,
      "2002": 5282,
      "Rooney": 5283,
      "saving": 5284,
      "lection": 5285,
      "completed": 5286,
      "ride": 5287,
      "limit": 5288,
      "sla": 5289,
      "concl": 5290,
      "proceed": 5291,
      "Scottish": 5292,
      "09": 5293,
      "Arizona": 5294,
      "250": 5295,
      "Beach": 5296,
      "daughters": 5297,
      "Agency": 5298,
      "iley": 5299,
      "embr": 5300,
      "quiet": 5301,
      "adults": 5302,
      "Japanese": 5303,
      "effects": 5304,
      "Bre": 5305,
      "Zeal": 5306,
      "Hay": 5307,
      "hack": 5308,
      "cha": 5309,
      "plot": 5310,
      "incredible": 5311,
      "gather": 5312,
      "revol": 5313,
      "crimin": 5314,
      "additional": 5315,
      "allows": 5316,
      "59": 5317,
      "sending": 5318,
      "gal": 5319,
      "condem": 5320,
      "apers": 5321,
      "Lin": 5322,
      "greater": 5323,
      "Sing": 5324,
      "FL": 5325,
      "doors": 5326,
      "domin": 5327,
      "dressed": 5328,
      "aggress": 5329,
      "stolen": 5330,
      "ye": 5331,
      "threatening": 5332,
      "protection": 5333,
      "email": 5334,
      "Lit": 5335,
      "teach": 5336,
      "800": 5337,
      "involve": 5338,
      "outs": 5339,
      "friendly": 5340,
      "rival": 5341,
      "background": 5342,
      "Work": 5343,
      "temperatures": 5344,
      "drawn": 5345,
      "constant": 5346,
      "aldo": 5347,
      "frustr": 5348,
      "favourite": 5349,
      "systems": 5350,
      "idel": 5351,
      "section": 5352,
      "beauty": 5353,
      "ABC": 5354,
      "atever": 5355,
      "Dam": 5356,
      "Zim": 5357,
      "tradition": 5358,
      "Miller": 5359,
      "receiving": 5360,
      "truth": 5361,
      "feels": 5362,
      "worry": 5363,
      "Cath": 5364,
      "stable": 5365,
      "Mun": 5366,
      "involving": 5367,
      "laps": 5368,
      "Ster": 5369,
      "retired": 5370,
      "Cub": 5371,
      "reaction": 5372,
      "jet": 5373,
      "generation": 5374,
      "Alan": 5375,
      "iding": 5376,
      "Men": 5377,
      "auction": 5378,
      "Navy": 5379,
      "wounded": 5380,
      "decide": 5381,
      "07": 5382,
      "DNA": 5383,
      "pa": 5384,
      "agents": 5385,
      "suspects": 5386,
      "bright": 5387,
      "Argentina": 5388,
      "standards": 5389,
      "beating": 5390,
      "weapon": 5391,
      "threats": 5392,
      "rescu": 5393,
      "fatal": 5394,
      "kil": 5395,
      "Mu": 5396,
      "2000": 5397,
      "weak": 5398,
      "Hong": 5399,
      "GOP": 5400,
      "cameras": 5401,
      "itude": 5402,
      "itchen": 5403,
      "orders": 5404,
      "Medical": 5405,
      "ifying": 5406,
      "tiny": 5407,
      "ruption": 5408,
      "damaged": 5409,
      "nell": 5410,
      "unusual": 5411,
      "Eliza": 5412,
      "tight": 5413,
      "reading": 5414,
      "deadly": 5415,
      "Zealand": 5416,
      "funding": 5417,
      "ologist": 5418,
      "Color": 5419,
      "backed": 5420,
      "relatives": 5421,
      "swit": 5422,
      "Ford": 5423,
      "democr": 5424,
      "roof": 5425,
      "Force": 5426,
      "Dan": 5427,
      "management": 5428,
      "individuals": 5429,
      "soldier": 5430,
      "Matthew": 5431,
      "promised": 5432,
      "upset": 5433,
      "suggests": 5434,
      "Any": 5435,
      "Lat": 5436,
      "Who": 5437,
      "grown": 5438,
      "Only": 5439,
      "nam": 5440,
      "definitely": 5441,
      "circumstances": 5442,
      "Hart": 5443,
      "Fl": 5444,
      "uce": 5445,
      "enjoyed": 5446,
      "tery": 5447,
      "ela": 5448,
      "ovic": 5449,
      "recru": 5450,
      "Mourinho": 5451,
      "trick": 5452,
      "regularly": 5453,
      "illy": 5454,
      "Diego": 5455,
      "lax": 5456,
      "syn": 5457,
      "Reg": 5458,
      "debt": 5459,
      "brut": 5460,
      "Everton": 5461,
      "survived": 5462,
      "tood": 5463,
      "listed": 5464,
      "Stud": 5465,
      "witnesses": 5466,
      "oppon": 5467,
      "cock": 5468,
      "helps": 5469,
      "fol": 5470,
      "Sc": 5471,
      "Gary": 5472,
      "affair": 5473,
      "gro": 5474,
      "noted": 5475,
      "experienced": 5476,
      "anna": 5477,
      "Because": 5478,
      "lah": 5479,
      "theast": 5480,
      "understood": 5481,
      "pieces": 5482,
      "conscious": 5483,
      "iano": 5484,
      "iversary": 5485,
      "06": 5486,
      "eing": 5487,
      "destroyed": 5488,
      "leaves": 5489,
      "neighborhood": 5490,
      "rom": 5491,
      "Lind": 5492,
      "rail": 5493,
      "Costa": 5494,
      "evol": 5495,
      "square": 5496,
      "ables": 5497,
      "elling": 5498,
      "Davis": 5499,
      "hone": 5500,
      "drove": 5501,
      "symptoms": 5502,
      "NBC": 5503,
      "produce": 5504,
      "pushed": 5505,
      "failing": 5506,
      "ique": 5507,
      "clash": 5508,
      "operating": 5509,
      "Roy": 5510,
      "quarters": 5511,
      "pas": 5512,
      "Belg": 5513,
      "Burn": 5514,
      "vari": 5515,
      "plays": 5516,
      "businesses": 5517,
      "Mem": 5518,
      "aces": 5519,
      "Tour": 5520,
      "escap": 5521,
      "astic": 5522,
      "Kong": 5523,
      "stores": 5524,
      "establish": 5525,
      "laughter": 5526,
      "killer": 5527,
      "crashed": 5528,
      "aret": 5529,
      "shape": 5530,
      "Olympics": 5531,
      "saved": 5532,
      "rence": 5533,
      "passing": 5534,
      "maybe": 5535,
      "Juli": 5536,
      "exercise": 5537,
      "Gen": 5538,
      "iami": 5539,
      "Stadium": 5540,
      "activities": 5541,
      "Lake": 5542,
      "prem": 5543,
      "western": 5544,
      "keen": 5545,
      "iest": 5546,
      "governor": 5547,
      "pal": 5548,
      "Bus": 5549,
      "Greg": 5550,
      "atest": 5551,
      "retail": 5552,
      "historic": 5553,
      "EA": 5554,
      "entertain": 5555,
      "rant": 5556,
      "increasingly": 5557,
      "Ministry": 5558,
      "Miami": 5559,
      "Yorkshire": 5560,
      "thank": 5561,
      "providing": 5562,
      "construction": 5563,
      "brothers": 5564,
      "dance": 5565,
      "influence": 5566,
      "Blo": 5567,
      "Institute": 5568,
      "strength": 5569,
      "prop": 5570,
      "likes": 5571,
      "opted": 5572,
      "creating": 5573,
      "Hal": 5574,
      "science": 5575,
      "aled": 5576,
      "yard": 5577,
      "collect": 5578,
      "Women": 5579,
      "vac": 5580,
      "Gaz": 5581,
      "umn": 5582,
      "vulner": 5583,
      "barrass": 5584,
      "Pad": 5585,
      "interested": 5586,
      "advantage": 5587,
      "vals": 5588,
      "primary": 5589,
      "epis": 5590,
      "presence": 5591,
      "larger": 5592,
      "Ronaldo": 5593,
      "originally": 5594,
      "intended": 5595,
      "Colorado": 5596,
      "species": 5597,
      "Duchess": 5598,
      "models": 5599,
      "py": 5600,
      "istol": 5601,
      "extrem": 5602,
      "anniversary": 5603,
      "Centre": 5604,
      "aran": 5605,
      "Report": 5606,
      "policies": 5607,
      "uss": 5608,
      "plus": 5609,
      "hire": 5610,
      "achu": 5611,
      "colour": 5612,
      "iband": 5613,
      "maker": 5614,
      "Assad": 5615,
      "orary": 5616,
      "ulate": 5617,
      "Northern": 5618,
      "memory": 5619,
      "meat": 5620,
      "Roman": 5621,
      "Dutch": 5622,
      "chest": 5623,
      "babies": 5624,
      "illance": 5625,
      "surrounding": 5626,
      "athlet": 5627,
      "Atlanta": 5628,
      "bags": 5629,
      "adult": 5630,
      "mand": 5631,
      "designer": 5632,
      "ademy": 5633,
      "tool": 5634,
      "complaint": 5635,
      "Miliband": 5636,
      "eastern": 5637,
      "causes": 5638,
      "hatt": 5639,
      "Like": 5640,
      "Suarez": 5641,
      "tribute": 5642,
      "forms": 5643,
      "bigger": 5644,
      "deploy": 5645,
      "heading": 5646,
      "consult": 5647,
      "climate": 5648,
      "Ros": 5649,
      "detect": 5650,
      "mine": 5651,
      "Evans": 5652,
      "odd": 5653,
      "Jay": 5654,
      "plat": 5655,
      "argued": 5656,
      "Bern": 5657,
      "string": 5658,
      "Bul": 5659,
      "isher": 5660,
      "Oli": 5661,
      "ingly": 5662,
      "sett": 5663,
      "facility": 5664,
      "Ohio": 5665,
      "Research": 5666,
      "lers": 5667,
      "itch": 5668,
      "panel": 5669,
      "correct": 5670,
      "belief": 5671,
      "disaster": 5672,
      "inet": 5673,
      "pes": 5674,
      "thro": 5675,
      "jack": 5676,
      "master": 5677,
      "Sho": 5678,
      "employment": 5679,
      "lected": 5680,
      "Jour": 5681,
      "Abu": 5682,
      "Snow": 5683,
      "Hotel": 5684,
      "uana": 5685,
      "announcement": 5686,
      "nic": 5687,
      "tail": 5688,
      "Kir": 5689,
      "helicopter": 5690,
      "noticed": 5691,
      "analys": 5692,
      "Trust": 5693,
      "Portug": 5694,
      "planet": 5695,
      "icated": 5696,
      "rushed": 5697,
      "Elizabeth": 5698,
      "vessel": 5699,
      "05": 5700,
      "sought": 5701,
      "Defense": 5702,
      "Ok": 5703,
      "bourne": 5704,
      "parliament": 5705,
      "proved": 5706,
      "dio": 5707,
      "professor": 5708,
      "driven": 5709,
      "stro": 5710,
      "unve": 5711,
      "contacted": 5712,
      "Lar": 5713,
      "edge": 5714,
      "dozens": 5715,
      "assu": 5716,
      "Saf": 5717,
      "apping": 5718,
      "potentially": 5719,
      "weigh": 5720,
      "Hod": 5721,
      "athe": 5722,
      "trained": 5723,
      "exhib": 5724,
      "ams": 5725,
      "pursu": 5726,
      "accepted": 5727,
      "reput": 5728,
      "Dem": 5729,
      "ifer": 5730,
      "knowledge": 5731,
      "bars": 5732,
      "Bridge": 5733,
      "termine": 5734,
      "presents": 5735,
      "journalist": 5736,
      "Rose": 5737,
      "itz": 5738,
      "ijuana": 5739,
      "determine": 5740,
      "ongoing": 5741,
      "plastic": 5742,
      "bare": 5743,
      "Jess": 5744,
      "UN": 5745,
      "spitals": 5746,
      "Show": 5747,
      "spirit": 5748,
      "Hamilton": 5749,
      "Parliament": 5750,
      "label": 5751,
      "iar": 5752,
      "hill": 5753,
      "easily": 5754,
      "scan": 5755,
      "golf": 5756,
      "explain": 5757,
      "setts": 5758,
      "function": 5759,
      "nations": 5760,
      "myster": 5761,
      "expand": 5762,
      "resist": 5763,
      "Art": 5764,
      "inquest": 5765,
      "perman": 5766,
      "reflect": 5767,
      "Rock": 5768,
      "featured": 5769,
      "borne": 5770,
      "busy": 5771,
      "Cole": 5772,
      "andez": 5773,
      "struggle": 5774,
      "blame": 5775,
      "affil": 5776,
      "Anderson": 5777,
      "housing": 5778,
      "slight": 5779,
      "ernandez": 5780,
      "Iraqi": 5781,
      "AC": 5782,
      "aced": 5783,
      "sexually": 5784,
      "smoke": 5785,
      "sparked": 5786,
      "Spr": 5787,
      "inches": 5788,
      "obs": 5789,
      "Also": 5790,
      "occup": 5791,
      "legislation": 5792,
      "scow": 5793,
      "kitchen": 5794,
      "recovered": 5795,
      "Gul": 5796,
      "tot": 5797,
      "assess": 5798,
      "Asia": 5799,
      "stadium": 5800,
      "visiting": 5801,
      "embarrass": 5802,
      "promise": 5803,
      "Massachu": 5804,
      "drag": 5805,
      "Der": 5806,
      "ww": 5807,
      "thus": 5808,
      "Mont": 5809,
      "icken": 5810,
      "Massachusetts": 5811,
      "ardi": 5812,
      "exclus": 5813,
      "Kur": 5814,
      "fallen": 5815,
      "riot": 5816,
      "zi": 5817,
      "Swed": 5818,
      "earned": 5819,
      "focused": 5820,
      "Care": 5821,
      "iat": 5822,
      "plants": 5823,
      "teachers": 5824,
      "skills": 5825,
      "passion": 5826,
      "subur": 5827,
      "gate": 5828,
      "standard": 5829,
      "wins": 5830,
      "identity": 5831,
      "Test": 5832,
      "attempts": 5833,
      "Mand": 5834,
      "task": 5835,
      "Allen": 5836,
      "ulated": 5837,
      "scheme": 5838,
      "happens": 5839,
      "Jes": 5840,
      "legally": 5841,
      "profit": 5842,
      "fought": 5843,
      "abs": 5844,
      "evac": 5845,
      "Pict": 5846,
      "unlikely": 5847,
      "performed": 5848,
      "identify": 5849,
      "erous": 5850,
      "refuge": 5851,
      "Feder": 5852,
      "prosecution": 5853,
      "options": 5854,
      "prosecutor": 5855,
      "locked": 5856,
      "Cy": 5857,
      "Il": 5858,
      "2016": 5859,
      "Michelle": 5860,
      "rejected": 5861,
      "Moscow": 5862,
      "learning": 5863,
      "ais": 5864,
      "inspir": 5865,
      "farm": 5866,
      "possibility": 5867,
      "Life": 5868,
      "Top": 5869,
      "wine": 5870,
      "ticket": 5871,
      "semi": 5872,
      "deputy": 5873,
      "spring": 5874,
      "effective": 5875,
      "bery": 5876,
      "legend": 5877,
      "mistake": 5878,
      "ijing": 5879,
      "inquiry": 5880,
      "ronic": 5881,
      "Ian": 5882,
      "sees": 5883,
      "Cross": 5884,
      "grandmother": 5885,
      "Mich": 5886,
      "roads": 5887,
      "letters": 5888,
      "cards": 5889,
      "Henry": 5890,
      "Gard": 5891,
      "Beijing": 5892,
      "Yet": 5893,
      "filmed": 5894,
      "traum": 5895,
      "delight": 5896,
      "decisions": 5897,
      "Saudi": 5898,
      "conspir": 5899,
      "enders": 5900,
      "asket": 5901,
      "Sor": 5902,
      "igno": 5903,
      "Clark": 5904,
      "proposed": 5905,
      "communities": 5906,
      "waters": 5907,
      "Milan": 5908,
      "marks": 5909,
      "Hun": 5910,
      "command": 5911,
      "equal": 5912,
      "Lady": 5913,
      "route": 5914,
      "cycl": 5915,
      "surprised": 5916,
      "behavior": 5917,
      "mosp": 5918,
      "occasion": 5919,
      "conversation": 5920,
      "struggled": 5921,
      "Ann": 5922,
      "hate": 5923,
      "kiss": 5924,
      "province": 5925,
      "icts": 5926,
      "Mayor": 5927,
      "immediate": 5928,
      "Sain": 5929,
      "dollars": 5930,
      "appre": 5931,
      "uit": 5932,
      "tragic": 5933,
      "arrang": 5934,
      "essential": 5935,
      "Football": 5936,
      "oted": 5937,
      "happening": 5938,
      "travelling": 5939,
      "delivered": 5940,
      "zon": 5941,
      "ially": 5942,
      "conservative": 5943,
      "Manhatt": 5944,
      "shout": 5945,
      "egg": 5946,
      "testing": 5947,
      "Cook": 5948,
      "sorry": 5949,
      "aught": 5950,
      "Manhattan": 5951,
      "ipe": 5952,
      "journalists": 5953,
      "iter": 5954,
      "pill": 5955,
      "Foundation": 5956,
      "ambulance": 5957,
      "rose": 5958,
      "developing": 5959,
      "gathered": 5960,
      "Bag": 5961,
      "Villa": 5962,
      "boast": 5963,
      "complaints": 5964,
      "loaded": 5965,
      "Coll": 5966,
      "ode": 5967,
      "conducted": 5968,
      "valu": 5969,
      "deeply": 5970,
      "mod": 5971,
      "closer": 5972,
      "Leice": 5973,
      "investment": 5974,
      "remote": 5975,
      "findings": 5976,
      "alling": 5977,
      "murdered": 5978,
      "welcome": 5979,
      "landing": 5980,
      "tears": 5981,
      "tie": 5982,
      "Fab": 5983,
      "joint": 5984,
      "Phill": 5985,
      "mostly": 5986,
      "Buck": 5987,
      "properly": 5988,
      "iti": 5989,
      "write": 5990,
      "fficient": 5991,
      "notice": 5992,
      "Cru": 5993,
      "cells": 5994,
      "inte": 5995,
      "publicly": 5996,
      "rebels": 5997,
      "sym": 5998,
      "About": 5999,
      "Wayne": 6000,
      "stayed": 6001,
      "none": 6002,
      "medal": 6003,
      "thrown": 6004,
      "Messi": 6005,
      "relax": 6006,
      "films": 6007,
      "compens": 6008,
      "choose": 6009,
      "affili": 6010,
      "Among": 6011,
      "acknowled": 6012,
      "Hou": 6013,
      "banks": 6014,
      "lon": 6015,
      "Nat": 6016,
      "taxpay": 6017,
      "blow": 6018,
      "ivity": 6019,
      "overall": 6020,
      "opinion": 6021,
      "elled": 6022,
      "cket": 6023,
      "funds": 6024,
      "Francisco": 6025,
      "employee": 6026,
      "painting": 6027,
      "tested": 6028,
      "Princess": 6029,
      "candidates": 6030,
      "stance": 6031,
      "incidents": 6032,
      "distri": 6033,
      "blamed": 6034,
      "bike": 6035,
      "owell": 6036,
      "dramatic": 6037,
      "exchange": 6038,
      "Alexander": 6039,
      "bassy": 6040,
      "NFL": 6041,
      "enty": 6042,
      "client": 6043,
      "divorce": 6044,
      "FIFA": 6045,
      "smaller": 6046,
      "stagram": 6047,
      "Town": 6048,
      "approved": 6049,
      "Rac": 6050,
      "challenges": 6051,
      "shar": 6052,
      "organiz": 6053,
      "surveillance": 6054,
      "ala": 6055,
      "coverage": 6056,
      "Brian": 6057,
      "inch": 6058,
      "Instagram": 6059,
      "viewers": 6060,
      "USA": 6061,
      "trigger": 6062,
      "celebrates": 6063,
      "buying": 6064,
      "offee": 6065,
      "horrif": 6066,
      "presented": 6067,
      "verse": 6068,
      "bish": 6069,
      "tun": 6070,
      "Six": 6071,
      "Sher": 6072,
      "trees": 6073,
      "tend": 6074,
      "prefer": 6075,
      "Las": 6076,
      "cture": 6077,
      "Libya": 6078,
      "airline": 6079,
      "tomor": 6080,
      "buried": 6081,
      "elected": 6082,
      "stuck": 6083,
      "tha": 6084,
      "considering": 6085,
      "widely": 6086,
      "possibly": 6087,
      "Channel": 6088,
      "tomorrow": 6089,
      "Bet": 6090,
      "tourists": 6091,
      "punish": 6092,
      "metal": 6093,
      "complic": 6094,
      "greatest": 6095,
      "method": 6096,
      "capture": 6097,
      "Cathol": 6098,
      "landed": 6099,
      "chances": 6100,
      "los": 6101,
      "vulnerable": 6102,
      "Charlie": 6103,
      "distance": 6104,
      "lav": 6105,
      "vey": 6106,
      "highlight": 6107,
      "eline": 6108,
      "Square": 6109,
      "gap": 6110,
      "staying": 6111,
      "nurse": 6112,
      "celebrity": 6113,
      "marijuana": 6114,
      "lunch": 6115,
      "resources": 6116,
      "numerous": 6117,
      "routine": 6118,
      "possession": 6119,
      "Mexican": 6120,
      "ita": 6121,
      "Hom": 6122,
      "Naz": 6123,
      "Ill": 6124,
      "consequ": 6125,
      "supported": 6126,
      "antly": 6127,
      "Comp": 6128,
      "complained": 6129,
      "scenes": 6130,
      "Get": 6131,
      "cia": 6132,
      "largely": 6133,
      "Morris": 6134,
      "controlled": 6135,
      "advoc": 6136,
      "syl": 6137,
      "Oscar": 6138,
      "tag": 6139,
      "Back": 6140,
      "tu": 6141,
      "usion": 6142,
      "DC": 6143,
      "politicians": 6144,
      "Sterling": 6145,
      "seats": 6146,
      "rating": 6147,
      "satis": 6148,
      "cation": 6149,
      "combat": 6150,
      "Rel": 6151,
      "Space": 6152,
      "Yes": 6153,
      "Josh": 6154,
      "DA": 6155,
      "Public": 6156,
      "Bon": 6157,
      "verdict": 6158,
      "cig": 6159,
      "icket": 6160,
      "drew": 6161,
      "personnel": 6162,
      "fighter": 6163,
      "bla": 6164,
      "predict": 6165,
      "liber": 6166,
      "ache": 6167,
      "Philip": 6168,
      "stabbed": 6169,
      "investigate": 6170,
      "Rights": 6171,
      "pub": 6172,
      "ategy": 6173,
      "bassador": 6174,
      "ju": 6175,
      "enses": 6176,
      "collaps": 6177,
      "eland": 6178,
      "Jane": 6179,
      "basis": 6180,
      "illing": 6181,
      "Soci": 6182,
      "Ly": 6183,
      "clothing": 6184,
      "lab": 6185,
      "Duke": 6186,
      "veteran": 6187,
      "Championship": 6188,
      "Gun": 6189,
      "isol": 6190,
      "calm": 6191,
      "establ": 6192,
      "grounds": 6193,
      "hoped": 6194,
      "pointed": 6195,
      "Max": 6196,
      "Tran": 6197,
      "dismissed": 6198,
      "fron": 6199,
      "Hamp": 6200,
      "Ap": 6201,
      "cipl": 6202,
      "Fer": 6203,
      "zen": 6204,
      "heavily": 6205,
      "privacy": 6206,
      "700": 6207,
      "offences": 6208,
      "Patrick": 6209,
      "Are": 6210,
      "intent": 6211,
      "marked": 6212,
      "museum": 6213,
      "Iranian": 6214,
      "dry": 6215,
      "Sheriff": 6216,
      "trail": 6217,
      "iner": 6218,
      "honor": 6219,
      "restrict": 6220,
      "euro": 6221,
      "Lead": 6222,
      "Lanc": 6223,
      "whatever": 6224,
      "consu": 6225,
      "ella": 6226,
      "fold": 6227,
      "Ross": 6228,
      "Rick": 6229,
      "jok": 6230,
      "planes": 6231,
      "activists": 6232,
      "elle": 6233,
      "atmosp": 6234,
      "Ama": 6235,
      "iser": 6236,
      "negative": 6237,
      "nick": 6238,
      "agencies": 6239,
      "nom": 6240,
      "adds": 6241,
      "yellow": 6242,
      "integr": 6243,
      "burgh": 6244,
      "ipped": 6245,
      "Lev": 6246,
      "grav": 6247,
      "Graham": 6248,
      "Lad": 6249,
      "norm": 6250,
      "Best": 6251,
      "vania": 6252,
      "retire": 6253,
      "disappeared": 6254,
      "rell": 6255,
      "abandoned": 6256,
      "ansas": 6257,
      "writer": 6258,
      "icy": 6259,
      "remaining": 6260,
      "terrorists": 6261,
      "Glo": 6262,
      "Ball": 6263,
      "tact": 6264,
      "Andre": 6265,
      "Abd": 6266,
      "infection": 6267,
      "dust": 6268,
      "Hug": 6269,
      "(£": 6270,
      "wave": 6271,
      "coc": 6272,
      "anony": 6273,
      "Valley": 6274,
      "Canad": 6275,
      "Friend": 6276,
      "whel": 6277,
      "markets": 6278,
      "civilians": 6279,
      "Journal": 6280,
      "humans": 6281,
      "04": 6282,
      "weren": 6283,
      "Ut": 6284,
      "Team": 6285,
      "shoes": 6286,
      "liter": 6287,
      "Jason": 6288,
      "tou": 6289,
      "irts": 6290,
      "pension": 6291,
      "shark": 6292,
      "ounced": 6293,
      "prec": 6294,
      "Pac": 6295,
      "torn": 6296,
      "Cab": 6297,
      "rocket": 6298,
      "obviously": 6299,
      "bun": 6300,
      "Crime": 6301,
      "Christop": 6302,
      "77": 6303,
      "abled": 6304,
      "raw": 6305,
      "critics": 6306,
      "Jen": 6307,
      "ogue": 6308,
      "established": 6309,
      "Second": 6310,
      "offensive": 6311,
      "album": 6312,
      "replaced": 6313,
      "knee": 6314,
      "iring": 6315,
      "supply": 6316,
      "ouri": 6317,
      "Queens": 6318,
      "Mars": 6319,
      "excited": 6320,
      "Stan": 6321,
      "swimming": 6322,
      "lots": 6323,
      "iro": 6324,
      "seized": 6325,
      "Pennsyl": 6326,
      "code": 6327,
      "gender": 6328,
      "Leon": 6329,
      "authority": 6330,
      "teenage": 6331,
      "gym": 6332,
      "motiv": 6333,
      "Little": 6334,
      "lady": 6335,
      "Bud": 6336,
      "Joseph": 6337,
      "lan": 6338,
      "stein": 6339,
      "disorder": 6340,
      "tennis": 6341,
      "citizen": 6342,
      "Khan": 6343,
      "stunning": 6344,
      "parking": 6345,
      "gall": 6346,
      "Swan": 6347,
      "tea": 6348,
      "cutting": 6349,
      "relations": 6350,
      "Pennsylvania": 6351,
      "Irish": 6352,
      "Turk": 6353,
      "strategy": 6354,
      "connected": 6355,
      "Airl": 6356,
      "distribut": 6357,
      "balance": 6358,
      "RS": 6359,
      "yourself": 6360,
      "cking": 6361,
      "Gov": 6362,
      "Officials": 6363,
      "defe": 6364,
      "apt": 6365,
      "Kerry": 6366,
      "intim": 6367,
      "ogra": 6368,
      "yo": 6369,
      "stepped": 6370,
      "Malays": 6371,
      "gotten": 6372,
      "virt": 6373,
      "brutal": 6374,
      "Airlines": 6375,
      "math": 6376,
      "asy": 6377,
      "Week": 6378,
      "Luis": 6379,
      "inspe": 6380,
      "chose": 6381,
      "targets": 6382,
      "Muslims": 6383,
      "Pen": 6384,
      "Dete": 6385,
      "Nic": 6386,
      "1970": 6387,
      "exposed": 6388,
      "Lyn": 6389,
      "iers": 6390,
      "bottle": 6391,
      "Each": 6392,
      "cope": 6393,
      "stream": 6394,
      "talked": 6395,
      "Nev": 6396,
      "impressive": 6397,
      "dozen": 6398,
      "worldwide": 6399,
      "ua": 6400,
      "guys": 6401,
      "Exper": 6402,
      "Has": 6403,
      "remarks": 6404,
      "honest": 6405,
      "studies": 6406,
      "desperate": 6407,
      "elderly": 6408,
      "Laur": 6409,
      "aire": 6410,
      "hospitals": 6411,
      "Museum": 6412,
      "icking": 6413,
      "illed": 6414,
      "prisoners": 6415,
      "ulous": 6416,
      "rivals": 6417,
      "Watson": 6418,
      "Cooper": 6419,
      "pupils": 6420,
      "ET": 6421,
      "portion": 6422,
      "Bas": 6423,
      "awarded": 6424,
      "Hear": 6425,
      "worn": 6426,
      "detail": 6427,
      "Terry": 6428,
      "ja": 6429,
      "pleas": 6430,
      "bone": 6431,
      "amm": 6432,
      "umped": 6433,
      "reputation": 6434,
      "collapsed": 6435,
      "Sever": 6436,
      "insists": 6437,
      "guards": 6438,
      "Stand": 6439,
      "revel": 6440,
      "PS": 6441,
      "jur": 6442,
      "impossible": 6443,
      "bills": 6444,
      "biz": 6445,
      "plor": 6446,
      "controversy": 6447,
      "jump": 6448,
      "mitted": 6449,
      "thinks": 6450,
      "parent": 6451,
      "Vegas": 6452,
      "nose": 6453,
      "arrive": 6454,
      "granted": 6455,
      "Bayern": 6456,
      "Federal": 6457,
      "Fil": 6458,
      "istics": 6459,
      "notes": 6460,
      "length": 6461,
      "ads": 6462,
      "Cro": 6463,
      "programs": 6464,
      "Officers": 6465,
      "Leicester": 6466,
      "Jonathan": 6467,
      "admits": 6468,
      "iew": 6469,
      "moves": 6470,
      "reveals": 6471,
      "66": 6472,
      "habit": 6473,
      "acle": 6474,
      "Jr": 6475,
      "quake": 6476,
      "slaughter": 6477,
      "ellor": 6478,
      "joining": 6479,
      "wonderful": 6480,
      "understanding": 6481,
      "tied": 6482,
      "discipl": 6483,
      "outrage": 6484,
      "memorial": 6485,
      "Ashley": 6486,
      "reduced": 6487,
      "sharing": 6488,
      "waste": 6489,
      "everybody": 6490,
      "criticised": 6491,
      "silver": 6492,
      "Melbourne": 6493,
      "associated": 6494,
      "anx": 6495,
      "Nas": 6496,
      "easier": 6497,
      "founded": 6498,
      "Christopher": 6499,
      "Houston": 6500,
      "uated": 6501,
      "actors": 6502,
      "plenty": 6503,
      "Still": 6504,
      "****": 6505,
      "referred": 6506,
      "devastated": 6507,
      "Its": 6508,
      "terrible": 6509,
      "dish": 6510,
      "truly": 6511,
      "champions": 6512,
      "goalkeeper": 6513,
      "PM": 6514,
      "mut": 6515,
      "maxim": 6516,
      "Organ": 6517,
      "CCTV": 6518,
      "recording": 6519,
      "supporting": 6520,
      "acceptable": 6521,
      "deter": 6522,
      "Wenger": 6523,
      "grave": 6524,
      "Mah": 6525,
      "aks": 6526,
      "coffee": 6527,
      "iden": 6528,
      "sque": 6529,
      "brill": 6530,
      "flew": 6531,
      "acre": 6532,
      "sar": 6533,
      "sis": 6534,
      "conviction": 6535,
      "Love": 6536,
      "dates": 6537,
      "etic": 6538,
      "IT": 6539,
      "symbol": 6540,
      "ova": 6541,
      "allas": 6542,
      "throw": 6543,
      "Oxford": 6544,
      "dones": 6545,
      "direction": 6546,
      "outbreak": 6547,
      "Corn": 6548,
      "survive": 6549,
      "Following": 6550,
      "tox": 6551,
      "tank": 6552,
      "interests": 6553,
      "quit": 6554,
      "raped": 6555,
      "tware": 6556,
      "Ow": 6557,
      "Santa": 6558,
      "thoughts": 6559,
      "appearances": 6560,
      "abort": 6561,
      "fortunately": 6562,
      "vacc": 6563,
      "eding": 6564,
      "grade": 6565,
      "sic": 6566,
      "stomach": 6567,
      "surviv": 6568,
      "org": 6569,
      "Moore": 6570,
      "Time": 6571,
      "bie": 6572,
      "overwhel": 6573,
      "argument": 6574,
      "tear": 6575,
      "vation": 6576,
      "aded": 6577,
      "explosion": 6578,
      "phe": 6579,
      "feared": 6580,
      "patter": 6581,
      "Anton": 6582,
      "realised": 6583,
      "Craig": 6584,
      "tat": 6585,
      "waves": 6586,
      "abroad": 6587,
      "Indones": 6588,
      "fake": 6589,
      "replace": 6590,
      "editor": 6591,
      "imin": 6592,
      "winds": 6593,
      "continuing": 6594,
      "hitting": 6595,
      "starts": 6596,
      "Michigan": 6597,
      "iPad": 6598,
      "Christie": 6599,
      "Blue": 6600,
      "unless": 6601,
      "threw": 6602,
      "Rodgers": 6603,
      "escaped": 6604,
      "rial": 6605,
      "arrival": 6606,
      "cott": 6607,
      "ette": 6608,
      "Sports": 6609,
      "defendant": 6610,
      "pregnancy": 6611,
      "Gaza": 6612,
      "Mother": 6613,
      "diff": 6614,
      "statements": 6615,
      "initi": 6616,
      "express": 6617,
      "Canadian": 6618,
      "solution": 6619,
      "courts": 6620,
      "Colomb": 6621,
      "barri": 6622,
      "Palestinian": 6623,
      "risks": 6624,
      "esc": 6625,
      "somebody": 6626,
      "tall": 6627,
      "uez": 6628,
      "micro": 6629,
      "princ": 6630,
      "bond": 6631,
      "discovery": 6632,
      "owns": 6633,
      "Hull": 6634,
      "Edward": 6635,
      "hunt": 6636,
      "blind": 6637,
      "prompted": 6638,
      "Girl": 6639,
      "mothers": 6640,
      "Jennifer": 6641,
      "tickets": 6642,
      "Anna": 6643,
      "Fred": 6644,
      "relief": 6645,
      "accur": 6646,
      "laid": 6647,
      "infr": 6648,
      "67": 6649,
      "CIA": 6650,
      "fined": 6651,
      "iga": 6652,
      "Robinson": 6653,
      "approached": 6654,
      "amber": 6655,
      "cocaine": 6656,
      "Call": 6657,
      "congress": 6658,
      "coalition": 6659,
      "toile": 6660,
      "ancellor": 6661,
      "empty": 6662,
      "wash": 6663,
      "internal": 6664,
      "shocking": 6665,
      "customer": 6666,
      "Associated": 6667,
      "arts": 6668,
      "Gordon": 6669,
      "Emma": 6670,
      "Sud": 6671,
      "acity": 6672,
      "ila": 6673,
      "couples": 6674,
      "ubbed": 6675,
      "unknown": 6676,
      "agan": 6677,
      "pover": 6678,
      "closely": 6679,
      "Oper": 6680,
      "85": 6681,
      "atmosphere": 6682,
      "ira": 6683,
      "Whit": 6684,
      "followers": 6685,
      "vital": 6686,
      "harass": 6687,
      "anne": 6688,
      "emic": 6689,
      "horri": 6690,
      "employed": 6691,
      "sanctions": 6692,
      "ashing": 6693,
      "hidden": 6694,
      "leads": 6695,
      "innocent": 6696,
      "Land": 6697,
      "deliber": 6698,
      "1999": 6699,
      "fing": 6700,
      "MS": 6701,
      "Photo": 6702,
      "Tro": 6703,
      "concluded": 6704,
      "Sunder": 6705,
      "Pope": 6706,
      "achiev": 6707,
      "core": 6708,
      "Jamie": 6709,
      "Scient": 6710,
      "ored": 6711,
      "Brother": 6712,
      "connect": 6713,
      "prescri": 6714,
      "encourage": 6715,
      "pson": 6716,
      "finger": 6717,
      "satell": 6718,
      "unities": 6719,
      "distur": 6720,
      "unclear": 6721,
      "opinions": 6722,
      "corruption": 6723,
      "Fal": 6724,
      "jumped": 6725,
      "revolution": 6726,
      "meal": 6727,
      "Conne": 6728,
      "Water": 6729,
      "legg": 6730,
      "uster": 6731,
      "izes": 6732,
      "height": 6733,
      "aco": 6734,
      "shops": 6735,
      "arre": 6736,
      "istani": 6737,
      "Gulf": 6738,
      "Bang": 6739,
      "Doctors": 6740,
      "provides": 6741,
      "Walker": 6742,
      "Edu": 6743,
      "Neil": 6744,
      "invited": 6745,
      "Radio": 6746,
      "procedure": 6747,
      "Sunderland": 6748,
      "cleared": 6749,
      "Catholic": 6750,
      "OK": 6751,
      "basic": 6752,
      "engaged": 6753,
      "tackle": 6754,
      "consumers": 6755,
      "replac": 6756,
      "Zimmer": 6757,
      "alle": 6758,
      "aska": 6759,
      "drunk": 6760,
      "Rio": 6761,
      "novel": 6762,
      "concent": 6763,
      "wid": 6764,
      "encounter": 6765,
      "Yemen": 6766,
      "totally": 6767,
      "cook": 6768,
      "gust": 6769,
      "borough": 6770,
      "tex": 6771,
      "Bell": 6772,
      "searching": 6773,
      "immigrants": 6774,
      "capable": 6775,
      "Pakistani": 6776,
      "software": 6777,
      "Hughes": 6778,
      "episode": 6779,
      "gi": 6780,
      "dealing": 6781,
      "testified": 6782,
      "ordin": 6783,
      "Ukrain": 6784,
      "Director": 6785,
      "See": 6786,
      "follows": 6787,
      "badly": 6788,
      "Thompson": 6789,
      "03": 6790,
      "Danny": 6791,
      "attacking": 6792,
      "formal": 6793,
      "shad": 6794,
      "Hernandez": 6795,
      "mel": 6796,
      "earning": 6797,
      "annah": 6798,
      "smoking": 6799,
      "scores": 6800,
      "raid": 6801,
      "mann": 6802,
      "Campbell": 6803,
      "excess": 6804,
      "plea": 6805,
      "sharp": 6806,
      "!\"": 6807,
      "atherine": 6808,
      "knowing": 6809,
      "Wim": 6810,
      "permission": 6811,
      "Leeds": 6812,
      "Boy": 6813,
      "petition": 6814,
      "bench": 6815,
      "Essex": 6816,
      "wreck": 6817,
      "sch": 6818,
      "chan": 6819,
      "lung": 6820,
      "Ri": 6821,
      "Jewish": 6822,
      "ws": 6823,
      "slightly": 6824,
      "aimed": 6825,
      "denies": 6826,
      "amb": 6827,
      "visible": 6828,
      "solid": 6829,
      "ureau": 6830,
      "preparing": 6831,
      "naked": 6832,
      "proposal": 6833,
      "Sum": 6834,
      "olds": 6835,
      "joy": 6836,
      "Jessica": 6837,
      "forget": 6838,
      "aser": 6839,
      "ancient": 6840,
      "marry": 6841,
      "Abdul": 6842,
      "erup": 6843,
      "Social": 6844,
      "LL": 6845,
      "suspicion": 6846,
      "adel": 6847,
      "digital": 6848,
      "lifestyle": 6849,
      "Hur": 6850,
      "stated": 6851,
      "replied": 6852,
      "fro": 6853,
      "68": 6854,
      "NAT": 6855,
      "basket": 6856,
      "fford": 6857,
      "detained": 6858,
      "Prosecutors": 6859,
      "vention": 6860,
      "minimum": 6861,
      "pread": 6862,
      "Whe": 6863,
      "rapid": 6864,
      "labor": 6865,
      "investigated": 6866,
      "ques": 6867,
      "Greece": 6868,
      "62": 6869,
      "Sorry": 6870,
      "forecast": 6871,
      "elson": 6872,
      "resto": 6873,
      "newly": 6874,
      "dying": 6875,
      "normally": 6876,
      "mour": 6877,
      "payments": 6878,
      "ware": 6879,
      "radical": 6880,
      "talent": 6881,
      "pushing": 6882,
      "NY": 6883,
      "fitness": 6884,
      "Wind": 6885,
      "hadn": 6886,
      "Knight": 6887,
      "robot": 6888,
      "hide": 6889,
      "welfare": 6890,
      "Rodrig": 6891,
      "Turn": 6892,
      "categ": 6893,
      "Atlantic": 6894,
      "Carl": 6895,
      "iance": 6896,
      "Op": 6897,
      "refere": 6898,
      "Wright": 6899,
      "ministers": 6900,
      "64": 6901,
      "prepare": 6902,
      "suddenly": 6903,
      "Tenn": 6904,
      "ott": 6905,
      "lifted": 6906,
      "Asked": 6907,
      "Swansea": 6908,
      "abused": 6909,
      "cles": 6910,
      "Nigeria": 6911,
      "turns": 6912,
      "prospect": 6913,
      "otic": 6914,
      "compensation": 6915,
      "surrounded": 6916,
      "Turkish": 6917,
      "fees": 6918,
      "ipal": 6919,
      "familiar": 6920,
      "automat": 6921,
      "yards": 6922,
      "scar": 6923,
      "Ple": 6924,
      "aval": 6925,
      "lapse": 6926,
      "recalled": 6927,
      "ae": 6928,
      "involvement": 6929,
      "proof": 6930,
      "surprising": 6931,
      "Nich": 6932,
      "Perry": 6933,
      "racist": 6934,
      "metres": 6935,
      "Clar": 6936,
      "cart": 6937,
      "behalf": 6938,
      "Tech": 6939,
      "jihad": 6940,
      "Simp": 6941,
      "tap": 6942,
      "scri": 6943,
      "imagine": 6944,
      "contra": 6945,
      "umber": 6946,
      "scared": 6947,
      "fantastic": 6948,
      "astron": 6949,
      "testim": 6950,
      "informed": 6951,
      "becomes": 6952,
      "documentary": 6953,
      "votes": 6954,
      "ental": 6955,
      "Five": 6956,
      "Pop": 6957,
      "shouldn": 6958,
      "alternative": 6959,
      "utter": 6960,
      "cycle": 6961,
      "knocked": 6962,
      "powers": 6963,
      "explains": 6964,
      "Hampshire": 6965,
      "trend": 6966,
      "horrific": 6967,
      "racing": 6968,
      "kicked": 6969,
      "Qat": 6970,
      "itarian": 6971,
      "appreci": 6972,
      "birds": 6973,
      "Stone": 6974,
      "enjoying": 6975,
      "favorite": 6976,
      "distr": 6977,
      "bombing": 6978,
      "decor": 6979,
      "extraordinary": 6980,
      "assistance": 6981,
      "wra": 6982,
      "Free": 6983,
      "Hard": 6984,
      "vies": 6985,
      "poison": 6986,
      "Hillary": 6987,
      "sleeping": 6988,
      "judges": 6989,
      "preced": 6990,
      "Holland": 6991,
      "Though": 6992,
      "spell": 6993,
      "fruit": 6994,
      "burst": 6995,
      "Trafford": 6996,
      "pink": 6997,
      "FC": 6998,
      "Hunt": 6999,
      "Dallas": 7000,
      "compete": 7001,
      "remind": 7002,
      "Polit": 7003,
      "Asian": 7004,
      "Brazilian": 7005,
      "earn": 7006,
      "rescued": 7007,
      "grass": 7008,
      "bird": 7009,
      "relatively": 7010,
      "arriving": 7011,
      "umph": 7012,
      "Jimmy": 7013,
      "Broad": 7014,
      "Gill": 7015,
      "entirely": 7016,
      "asks": 7017,
      "conspiracy": 7018,
      "PC": 7019,
      "facilities": 7020,
      "Sub": 7021,
      "dispute": 7022,
      "essions": 7023,
      "Abbott": 7024,
      "solely": 7025,
      "ultimately": 7026,
      "Pacific": 7027,
      "trapped": 7028,
      "operate": 7029,
      "describes": 7030,
      "recommend": 7031,
      "milk": 7032,
      "defending": 7033,
      "1998": 7034,
      "incredibly": 7035,
      "reporter": 7036,
      "narrow": 7037,
      "bom": 7038,
      "zo": 7039,
      "athon": 7040,
      "drama": 7041,
      "guaran": 7042,
      "Tou": 7043,
      "intention": 7044,
      "intense": 7045,
      "Dave": 7046,
      "purpose": 7047,
      "Yesterday": 7048,
      "overseas": 7049,
      "NATO": 7050,
      "shoulder": 7051,
      "obtained": 7052,
      "grat": 7053,
      "credi": 7054,
      "Vill": 7055,
      "disappearance": 7056,
      "firms": 7057,
      "begins": 7058,
      "Sel": 7059,
      "apol": 7060,
      "subsequ": 7061,
      "Bad": 7062,
      "Celt": 7063,
      "Ell": 7064,
      "Mod": 7065,
      "stairs": 7066,
      "gam": 7067,
      "Okla": 7068,
      "theft": 7069,
      "prob": 7070,
      "Zimmerman": 7071,
      "chosen": 7072,
      "handle": 7073,
      "EN": 7074,
      "Bab": 7075,
      "rally": 7076,
      "posting": 7077,
      "bledon": 7078,
      "adopted": 7079,
      "reaching": 7080,
      "drinks": 7081,
      "permanent": 7082,
      "Missouri": 7083,
      "amoun": 7084,
      "iconic": 7085,
      "smile": 7086,
      "Where": 7087,
      "Clegg": 7088,
      "structure": 7089,
      "jun": 7090,
      "Laura": 7091,
      "repair": 7092,
      "Blair": 7093,
      "walls": 7094,
      "idespread": 7095,
      "analysis": 7096,
      "ocean": 7097,
      "Wimbledon": 7098,
      "Oklahom": 7099,
      "Head": 7100,
      "Robin": 7101,
      "fre": 7102,
      "solar": 7103,
      "Prev": 7104,
      "Society": 7105,
      "bathroom": 7106,
      "pig": 7107,
      "abdu": 7108,
      "Justin": 7109,
      "dedicated": 7110,
      "lined": 7111,
      "Your": 7112,
      "veled": 7113,
      "Bristol": 7114,
      "Wild": 7115,
      "Dur": 7116,
      "incent": 7117,
      "factory": 7118,
      "gift": 7119,
      "distress": 7120,
      "conce": 7121,
      "pound": 7122,
      "thin": 7123,
      "afr": 7124,
      "rard": 7125,
      "olas": 7126,
      "reporting": 7127,
      "Pre": 7128,
      "vin": 7129,
      "istrates": 7130,
      "withdraw": 7131,
      "posts": 7132,
      "Stoke": 7133,
      "vised": 7134,
      "characters": 7135,
      "presenter": 7136,
      "km": 7137,
      "shift": 7138,
      "oth": 7139,
      "matters": 7140,
      "festival": 7141,
      "communications": 7142,
      "Nad": 7143,
      "vig": 7144,
      "fires": 7145,
      "Commons": 7146,
      "unveiled": 7147,
      "writes": 7148,
      "breach": 7149,
      "celebrities": 7150,
      "maximum": 7151,
      "brilliant": 7152,
      "OW": 7153,
      "tons": 7154,
      "classic": 7155,
      "performing": 7156,
      "iven": 7157,
      "successfully": 7158,
      "Metro": 7159,
      "gment": 7160,
      "veget": 7161,
      "shares": 7162,
      "rit": 7163,
      "OS": 7164,
      "kel": 7165,
      "stitutional": 7166,
      "teeth": 7167,
      "Egyptian": 7168,
      "Fair": 7169,
      "aggressive": 7170,
      "63": 7171,
      "Ukrainian": 7172,
      "areness": 7173,
      "von": 7174,
      "ideas": 7175,
      "gue": 7176,
      "wounds": 7177,
      "apply": 7178,
      "sixth": 7179,
      "packed": 7180,
      "conclus": 7181,
      "lists": 7182,
      "taxes": 7183,
      "Oklahoma": 7184,
      "Dub": 7185,
      "specialist": 7186,
      "magn": 7187,
      "igned": 7188,
      "shed": 7189,
      "describe": 7190,
      "Academy": 7191,
      "thal": 7192,
      "thusi": 7193,
      "Power": 7194,
      "Major": 7195,
      "ingham": 7196,
      "lake": 7197,
      "ardo": 7198,
      "Hus": 7199,
      "Nico": 7200,
      "capacity": 7201,
      "twe": 7202,
      "Lib": 7203,
      "Cry": 7204,
      "Several": 7205,
      "Mitche": 7206,
      "demanded": 7207,
      "Tar": 7208,
      "colate": 7209,
      "Local": 7210,
      "Conservative": 7211,
      "panic": 7212,
      "Hodg": 7213,
      "Daw": 7214,
      "taught": 7215,
      "inn": 7216,
      "experiment": 7217,
      "Mas": 7218,
      "luck": 7219,
      "sli": 7220,
      "oter": 7221,
      "rural": 7222,
      "commitment": 7223,
      "entit": 7224,
      "sac": 7225,
      "Hope": 7226,
      "Amazon": 7227,
      "properties": 7228,
      "sector": 7229,
      "defended": 7230,
      "consequences": 7231,
      "ema": 7232,
      "interesting": 7233,
      "traff": 7234,
      "Arch": 7235,
      "casual": 7236,
      "accepting": 7237,
      "caf": 7238,
      "Sean": 7239,
      "windows": 7240,
      "ato": 7241,
      "tip": 7242,
      "sung": 7243,
      "prize": 7244,
      "attempting": 7245,
      "Cardiff": 7246,
      "implement": 7247,
      "Ocean": 7248,
      "bull": 7249,
      "Services": 7250,
      "types": 7251,
      "Mitchell": 7252,
      "archite": 7253,
      "preser": 7254,
      "afraid": 7255,
      "travelled": 7256,
      "sweet": 7257,
      "disappointed": 7258,
      "stim": 7259,
      "depression": 7260,
      "irty": 7261,
      "Cas": 7262,
      "devastating": 7263,
      "Mohammed": 7264,
      "finals": 7265,
      "911": 7266,
      "95": 7267,
      "Roll": 7268,
      "Ale": 7269,
      "childhood": 7270,
      "Edwards": 7271,
      "Hy": 7272,
      "joke": 7273,
      "Davies": 7274,
      "frame": 7275,
      "($": 7276,
      "extended": 7277,
      "Gi": 7278,
      "gor": 7279,
      "projects": 7280,
      "crucial": 7281,
      "Food": 7282,
      "Pass": 7283,
      "Transport": 7284,
      "cow": 7285,
      "campus": 7286,
      "72": 7287,
      "widespread": 7288,
      "enor": 7289,
      "arrests": 7290,
      "Cop": 7291,
      "chef": 7292,
      "notori": 7293,
      "concept": 7294,
      "anywhere": 7295,
      "opportunities": 7296,
      "contained": 7297,
      "Had": 7298,
      "beer": 7299,
      "Marine": 7300,
      "appointed": 7301,
      "testimony": 7302,
      "advent": 7303,
      "fel": 7304,
      "minster": 7305,
      "promote": 7306,
      "Woods": 7307,
      "phia": 7308,
      "Pay": 7309,
      "demanding": 7310,
      "Pot": 7311,
      "Stewart": 7312,
      "Luke": 7313,
      "Rodriguez": 7314,
      "sted": 7315,
      "battery": 7316,
      "Gerrard": 7317,
      "bat": 7318,
      "Swit": 7319,
      "Bruce": 7320,
      "offence": 7321,
      "appearing": 7322,
      "approval": 7323,
      "fewer": 7324,
      "wan": 7325,
      "cream": 7326,
      "inois": 7327,
      "cous": 7328,
      "Edin": 7329,
      "affiliate": 7330,
      "caution": 7331,
      "reward": 7332,
      "iland": 7333,
      "idelines": 7334,
      "Pers": 7335,
      "NASA": 7336,
      "Carter": 7337,
      "hell": 7338,
      "sect": 7339,
      "robbery": 7340,
      "registered": 7341,
      "Jeremy": 7342,
      "Vi": 7343,
      "orses": 7344,
      "athletes": 7345,
      "attending": 7346,
      "platform": 7347,
      "ifts": 7348,
      "Experts": 7349,
      "puts": 7350,
      "intend": 7351,
      "advance": 7352,
      "officially": 7353,
      "sugar": 7354,
      "bullet": 7355,
      "02": 7356,
      "orous": 7357,
      "compar": 7358,
      "odes": 7359,
      "tonight": 7360,
      "hired": 7361,
      "flowers": 7362,
      "listen": 7363,
      "Station": 7364,
      "shore": 7365,
      "haul": 7366,
      "mansion": 7367,
      "adelphia": 7368,
      "multi": 7369,
      "Anne": 7370,
      "Guard": 7371,
      "Munich": 7372,
      "Fran": 7373,
      "Crist": 7374,
      "Lisa": 7375,
      "overnight": 7376,
      "ando": 7377,
      "Administr": 7378,
      "gained": 7379,
      "Disney": 7380,
      "Ferr": 7381,
      "Deputy": 7382,
      "gow": 7383,
      "aler": 7384,
      "strateg": 7385,
      "checks": 7386,
      "Investigators": 7387,
      "Nig": 7388,
      "temperature": 7389,
      "Philadelphia": 7390,
      "60s": 7391,
      "temporary": 7392,
      "Illinois": 7393,
      "walks": 7394,
      "enthusi": 7395,
      "vet": 7396,
      "priority": 7397,
      "phan": 7398,
      "Live": 7399,
      "pleased": 7400,
      "asters": 7401,
      "Arm": 7402,
      "grandfather": 7403,
      "otherwise": 7404,
      "inez": 7405,
      "CBS": 7406,
      "Jean": 7407,
      "Osborne": 7408,
      "Glas": 7409,
      "Rangers": 7410,
      "profession": 7411,
      "abilities": 7412,
      "crying": 7413,
      "eval": 7414,
      "bris": 7415,
      "Brom": 7416,
      "Si": 7417,
      "Sandy": 7418,
      "bors": 7419,
      "agu": 7420,
      "links": 7421,
      "AS": 7422,
      "Pas": 7423,
      "clinic": 7424,
      "Southern": 7425,
      "Chancellor": 7426,
      "demands": 7427,
      "apology": 7428,
      "Lt": 7429,
      "lob": 7430,
      "ugs": 7431,
      "mart": 7432,
      "copy": 7433,
      "Amanda": 7434,
      "TH": 7435,
      "dd": 7436,
      "aboard": 7437,
      "Russell": 7438,
      "explos": 7439,
      "Scientists": 7440,
      "commentary": 7441,
      "eping": 7442,
      "Kay": 7443,
      "NS": 7444,
      "locations": 7445,
      "collected": 7446,
      "existing": 7447,
      "Rev": 7448,
      "yer": 7449,
      "Lincol": 7450,
      "athle": 7451,
      "shelter": 7452,
      "hob": 7453,
      "Alab": 7454,
      "itis": 7455,
      "oft": 7456,
      "spin": 7457,
      "positions": 7458,
      "Laden": 7459,
      "69": 7460,
      "Brooklyn": 7461,
      "hits": 7462,
      "closing": 7463,
      "cler": 7464,
      "awareness": 7465,
      "accompl": 7466,
      "killings": 7467,
      "Lincoln": 7468,
      "Gil": 7469,
      "Medic": 7470,
      "Tun": 7471,
      "Bloom": 7472,
      "pel": 7473,
      "sisters": 7474,
      "loves": 7475,
      "drone": 7476,
      "Friends": 7477,
      "Fre": 7478,
      "atically": 7479,
      "rush": 7480,
      "mud": 7481,
      "entr": 7482,
      "deals": 7483,
      "Fern": 7484,
      "Happ": 7485,
      "usive": 7486,
      "interviewed": 7487,
      "patrol": 7488,
      "Roger": 7489,
      "covering": 7490,
      "01": 7491,
      "Mario": 7492,
      "tape": 7493,
      "rated": 7494,
      "burning": 7495,
      "itary": 7496,
      "teenagers": 7497,
      "execution": 7498,
      "dale": 7499,
      "burned": 7500,
      "Fur": 7501,
      "factor": 7502,
      "til": 7503,
      "ridge": 7504,
      "cticut": 7505,
      "1997": 7506,
      "Aston": 7507,
      "sits": 7508,
      "nomin": 7509,
      "Connecticut": 7510,
      "Flo": 7511,
      "carbon": 7512,
      "78": 7513,
      "punishment": 7514,
      "Celtic": 7515,
      "convin": 7516,
      "clip": 7517,
      "chi": 7518,
      "liance": 7519,
      "independence": 7520,
      "guide": 7521,
      "delighted": 7522,
      "cited": 7523,
      "Fel": 7524,
      "Trans": 7525,
      "extensive": 7526,
      "feeding": 7527,
      "variety": 7528,
      "bizarre": 7529,
      "mere": 7530,
      "blank": 7531,
      "Pear": 7532,
      "Martinez": 7533,
      "cers": 7534,
      "Raf": 7535,
      "Enter": 7536,
      "cedes": 7537,
      "graphic": 7538,
      "Was": 7539,
      "clients": 7540,
      "entry": 7541,
      "inves": 7542,
      "restaurants": 7543,
      "Adams": 7544,
      "loud": 7545,
      "rot": 7546,
      "acknowledged": 7547,
      "pace": 7548,
      "120": 7549,
      "ambassador": 7550,
      "Marg": 7551,
      "Belgium": 7552,
      "Ye": 7553,
      "enormous": 7554,
      "updated": 7555,
      "Tam": 7556,
      "posite": 7557,
      "headquarters": 7558,
      "Aar": 7559,
      "toll": 7560,
      "cann": 7561,
      "resolution": 7562,
      "improved": 7563,
      "Hawai": 7564,
      "convinced": 7565,
      "excell": 7566,
      "movies": 7567,
      "taste": 7568,
      "Leg": 7569,
      "Cat": 7570,
      "cruel": 7571,
      "Heath": 7572,
      "icit": 7573,
      "Ward": 7574,
      "Having": 7575,
      "loving": 7576,
      "scape": 7577,
      "rists": 7578,
      "checked": 7579,
      "honour": 7580,
      "settlement": 7581,
      "McCain": 7582,
      "Seattle": 7583,
      "enez": 7584,
      "color": 7585,
      "companied": 7586,
      "facts": 7587,
      "***": 7588,
      "Philipp": 7589,
      "closure": 7590,
      "GB": 7591,
      "cancell": 7592,
      "dubbed": 7593,
      "alia": 7594,
      "etime": 7595,
      "succeed": 7596,
      "ili": 7597,
      "goods": 7598,
      "Alabama": 7599,
      "Tes": 7600,
      "infected": 7601,
      "drome": 7602,
      "impressed": 7603,
      "rie": 7604,
      "verted": 7605,
      "celebrated": 7606,
      "nett": 7607,
      "touched": 7608,
      "ls": 7609,
      "Marsh": 7610,
      "Portugal": 7611,
      "regional": 7612,
      "vy": 7613,
      "riding": 7614,
      "rehab": 7615,
      "firing": 7616,
      "shell": 7617,
      "sam": 7618,
      "spokesperson": 7619,
      "athy": 7620,
      "county": 7621,
      "Researchers": 7622,
      "regarding": 7623,
      "Did": 7624,
      "Row": 7625,
      "featuring": 7626,
      "loyal": 7627,
      "uine": 7628,
      "effectively": 7629,
      "Guardi": 7630,
      "rolled": 7631,
      "infect": 7632,
      "Micro": 7633,
      "exciting": 7634,
      "papers": 7635,
      "commander": 7636,
      "Inc": 7637,
      "hanging": 7638,
      "Les": 7639,
      "loyd": 7640,
      "Everyone": 7641,
      "Na": 7642,
      "promin": 7643,
      "bombs": 7644,
      "forcing": 7645,
      "Utah": 7646,
      "governments": 7647,
      "racial": 7648,
      "cancel": 7649,
      "emails": 7650,
      "wet": 7651,
      "breathing": 7652,
      "Cos": 7653,
      "wire": 7654,
      "protected": 7655,
      "delivery": 7656,
      "strange": 7657,
      "aired": 7658,
      "Democrat": 7659,
      "attered": 7660,
      "exclusive": 7661,
      "poverty": 7662,
      "application": 7663,
      "applied": 7664,
      "Cher": 7665,
      "courage": 7666,
      "youngest": 7667,
      "summit": 7668,
      "titles": 7669,
      "warrant": 7670,
      "Hodgson": 7671,
      "Wit": 7672,
      "otelli": 7673,
      "grees": 7674,
      "oles": 7675,
      "acks": 7676,
      "tories": 7677,
      "iron": 7678,
      "lean": 7679,
      "visits": 7680,
      "package": 7681,
      "ateful": 7682,
      "indicated": 7683,
      "Balotelli": 7684,
      "democracy": 7685,
      "icing": 7686,
      "tourist": 7687,
      "requires": 7688,
      "occasions": 7689,
      "Board": 7690,
      "criminals": 7691,
      "Mali": 7692,
      "Vis": 7693,
      "neur": 7694,
      "Switzer": 7695,
      "urses": 7696,
      "territory": 7697,
      "attached": 7698,
      "genuine": 7699,
      "traveling": 7700,
      "environmental": 7701,
      "regret": 7702,
      "experiences": 7703,
      "AR": 7704,
      "Glasgow": 7705,
      "eh": 7706,
      "uff": 7707,
      "civilian": 7708,
      "snap": 7709,
      "elsewhere": 7710,
      "dressing": 7711,
      "praised": 7712,
      "Westminster": 7713,
      "generally": 7714,
      "screaming": 7715,
      "attracted": 7716,
      "suits": 7717,
      "desire": 7718,
      "brid": 7719,
      "deport": 7720,
      "supplies": 7721,
      "Duncan": 7722,
      "QPR": 7723,
      "Switzerland": 7724,
      "Gab": 7725,
      "Gro": 7726,
      "missions": 7727,
      "ricane": 7728,
      "funded": 7729,
      "Thanks": 7730,
      "Aff": 7731,
      "degrees": 7732,
      "Charlot": 7733,
      "accompanied": 7734,
      "Rebe": 7735,
      "itage": 7736,
      "classes": 7737,
      "typically": 7738,
      "Cho": 7739,
      "1980s": 7740,
      "Amy": 7741,
      "owa": 7742,
      "liked": 7743,
      "sheriff": 7744,
      "thetic": 7745,
      "Secret": 7746,
      "suspicious": 7747,
      "olly": 7748,
      "liqu": 7749,
      "legit": 7750,
      "funny": 7751,
      "Pres": 7752,
      "Bagh": 7753,
      "Py": 7754,
      "organisation": 7755,
      "endum": 7756,
      "Pent": 7757,
      "Prote": 7758,
      "neighbours": 7759,
      "advised": 7760,
      "Ret": 7761,
      "hiding": 7762,
      "Howard": 7763,
      "condemned": 7764,
      "Lane": 7765,
      "stronger": 7766,
      "manage": 7767,
      "Special": 7768,
      "represents": 7769,
      "mole": 7770,
      "Leban": 7771,
      "cord": 7772,
      "utions": 7773,
      "Rem": 7774,
      "teens": 7775,
      "satellite": 7776,
      "acular": 7777,
      "pressing": 7778,
      "searched": 7779,
      "CH": 7780,
      "ighton": 7781,
      "cam": 7782,
      "encouraged": 7783,
      "affairs": 7784,
      "alert": 7785,
      "Susan": 7786,
      "Cuba": 7787,
      "Father": 7788,
      "hosts": 7789,
      "brown": 7790,
      "rugby": 7791,
      "crazy": 7792,
      "barely": 7793,
      "seed": 7794,
      "greet": 7795,
      "RO": 7796,
      "Snowden": 7797,
      "winners": 7798,
      "deem": 7799,
      "hase": 7800,
      "Stuart": 7801,
      "producer": 7802,
      "teaching": 7803,
      "stron": 7804,
      "aga": 7805,
      "voting": 7806,
      "ffield": 7807,
      "relationships": 7808,
      "combined": 7809,
      "throwing": 7810,
      "values": 7811,
      "meetings": 7812,
      "Mos": 7813,
      "remarkable": 7814,
      "basketball": 7815,
      "glasses": 7816,
      "stroke": 7817,
      "inappropriate": 7818,
      "studio": 7819,
      "Jesus": 7820,
      "races": 7821,
      "cricket": 7822,
      "veterans": 7823,
      "homeless": 7824,
      "Emer": 7825,
      "entering": 7826,
      "Thailand": 7827,
      "backs": 7828,
      "sentencing": 7829,
      "HIV": 7830,
      "mechan": 7831,
      "mixed": 7832,
      "Ref": 7833,
      "spons": 7834,
      "spray": 7835,
      "deny": 7836,
      "celebrating": 7837,
      "GM": 7838,
      "icial": 7839,
      "Collins": 7840,
      "Bron": 7841,
      "Cornwall": 7842,
      "Hills": 7843,
      "Han": 7844,
      "Garcia": 7845,
      "Thor": 7846,
      "Griff": 7847,
      "detailed": 7848,
      "imate": 7849,
      "meals": 7850,
      "chocolate": 7851,
      "nobody": 7852,
      "renew": 7853,
      "Fall": 7854,
      "smil": 7855,
      "confront": 7856,
      "counsel": 7857,
      "apps": 7858,
      "Officer": 7859,
      "stations": 7860,
      "Barbar": 7861,
      "anybody": 7862,
      "61": 7863,
      "Cele": 7864,
      "thick": 7865,
      "Business": 7866,
      "Brend": 7867,
      "oldest": 7868,
      "onso": 7869,
      "1970s": 7870,
      "ethnic": 7871,
      "opposed": 7872,
      "filming": 7873,
      "Dubai": 7874,
      "Ky": 7875,
      "render": 7876,
      "sensitive": 7877,
      "Vide": 7878,
      "gunman": 7879,
      "Education": 7880,
      "Iowa": 7881,
      "sounds": 7882,
      "explor": 7883,
      "counted": 7884,
      "Rome": 7885,
      "Notting": 7886,
      "Viet": 7887,
      "Wis": 7888,
      "Crystal": 7889,
      "enny": 7890,
      "suggesting": 7891,
      "opponents": 7892,
      "Lor": 7893,
      "resulted": 7894,
      "divers": 7895,
      "1990s": 7896,
      "voy": 7897,
      "Low": 7898,
      "Aaron": 7899,
      "manner": 7900,
      "Slo": 7901,
      "flooding": 7902,
      "grabbed": 7903,
      "taxi": 7904,
      "Winter": 7905,
      "referendum": 7906,
      "represented": 7907,
      "cca": 7908,
      "Katie": 7909,
      "bacter": 7910,
      "cultural": 7911,
      "Jac": 7912,
      "detectives": 7913,
      "Sheffield": 7914,
      "airo": 7915,
      "assaulted": 7916,
      "Derby": 7917,
      "Edinburgh": 7918,
      "wealthy": 7919,
      "Ay": 7920,
      "Flight": 7921,
      "artists": 7922,
      "horses": 7923,
      "asion": 7924,
      "firefighters": 7925,
      "keeps": 7926,
      "clock": 7927,
      "containing": 7928,
      "sustain": 7929,
      "nox": 7930,
      "Around": 7931,
      "Baghdad": 7932,
      "neither": 7933,
      "fas": 7934,
      "slo": 7935,
      "obvious": 7936,
      "bones": 7937,
      "ologists": 7938,
      "enh": 7939,
      "predicted": 7940,
      "interviews": 7941,
      "branch": 7942,
      "cert": 7943,
      "dependent": 7944,
      "upper": 7945,
      "fishing": 7946,
      "colleague": 7947,
      "moral": 7948,
      "BM": 7949,
      "inations": 7950,
      "Atlet": 7951,
      "slowly": 7952,
      "fab": 7953,
      "crossing": 7954,
      "anonymous": 7955,
      "advertising": 7956,
      "pron": 7957,
      "portra": 7958,
      "motion": 7959,
      "contains": 7960,
      "blocked": 7961,
      "medication": 7962,
      "Right": 7963,
      "investigations": 7964,
      "organizations": 7965,
      "therefore": 7966,
      "Beckham": 7967,
      "ridic": 7968,
      "portray": 7969,
      "accusations": 7970,
      "Gad": 7971,
      "univers": 7972,
      "sized": 7973,
      "1996": 7974,
      "volunteers": 7975,
      "roid": 7976,
      "competitive": 7977,
      "reforms": 7978,
      "manufactur": 7979,
      "McDonald": 7980,
      "berry": 7981,
      "cuit": 7982,
      "stages": 7983,
      "tracks": 7984,
      "aya": 7985,
      "Mercedes": 7986,
      "chez": 7987,
      "crimination": 7988,
      "Samsung": 7989,
      "Berg": 7990,
      "Chile": 7991,
      "graduate": 7992,
      "olph": 7993,
      "settled": 7994,
      "Ul": 7995,
      "Treas": 7996,
      "politan": 7997,
      "branded": 7998,
      "vowed": 7999,
      "strongly": 8000,
      "Swiss": 8001,
      "Sudan": 8002,
      "idi": 8003,
      "usal": 8004,
      "1994": 8005,
      "Kenya": 8006,
      "ordeal": 8007,
      "finds": 8008,
      "united": 8009,
      "fiel": 8010,
      "plate": 8011,
      "evolution": 8012,
      "conven": 8013,
      "collapse": 8014,
      "Beat": 8015,
      "contrast": 8016,
      "Gall": 8017,
      "compound": 8018,
      "Bash": 8019,
      "Hot": 8020,
      "shr": 8021,
      "probe": 8022,
      "procedures": 8023,
      "harder": 8024,
      "stole": 8025,
      "acad": 8026,
      "striking": 8027,
      "memories": 8028,
      "sporting": 8029,
      "outcome": 8030,
      "bru": 8031,
      "Juan": 8032,
      "glam": 8033,
      "speaks": 8034,
      "aide": 8035,
      "ups": 8036,
      "importance": 8037,
      "reads": 8038,
      "Defence": 8039,
      "Soph": 8040,
      "Dick": 8041,
      "hunting": 8042,
      "brings": 8043,
      "Administration": 8044,
      "falls": 8045,
      "phed": 8046,
      "persu": 8047,
      "handling": 8048,
      "migrants": 8049,
      "bust": 8050,
      "religion": 8051,
      "brave": 8052,
      "anticip": 8053,
      "please": 8054,
      "vous": 8055,
      "technical": 8056,
      "Atletico": 8057,
      "diplomatic": 8058,
      "trophy": 8059,
      "amo": 8060,
      "eler": 8061,
      "rett": 8062,
      "Phillips": 8063,
      "Castro": 8064,
      "vant": 8065,
      "ramp": 8066,
      "Spring": 8067,
      "stig": 8068,
      "curren": 8069,
      "Az": 8070,
      "negotiations": 8071,
      "referring": 8072,
      "opposite": 8073,
      "Others": 8074,
      "electricity": 8075,
      "theory": 8076,
      "convict": 8077,
      "theat": 8078,
      "allies": 8079,
      "monitoring": 8080,
      "Rand": 8081,
      "aer": 8082,
      "Vol": 8083,
      "faster": 8084,
      "peaceful": 8085,
      "sink": 8086,
      "skull": 8087,
      "substant": 8088,
      "eleph": 8089,
      "speculation": 8090,
      "materials": 8091,
      "sustained": 8092,
      "oms": 8093,
      "bitter": 8094,
      "Sanchez": 8095,
      "creation": 8096,
      "industrial": 8097,
      "Nelson": 8098,
      "cruise": 8099,
      "Gib": 8100,
      "Sad": 8101,
      "gt": 8102,
      "Sk": 8103,
      "ighth": 8104,
      "comedy": 8105,
      "Hit": 8106,
      "waited": 8107,
      "ITV": 8108,
      "creative": 8109,
      "discussed": 8110,
      "celebration": 8111,
      "mood": 8112,
      "Armstrong": 8113,
      "icate": 8114,
      "shine": 8115,
      "aside": 8116,
      "chicken": 8117,
      "answers": 8118,
      "Reid": 8119,
      "Maryland": 8120,
      "requests": 8121,
      ".-": 8122,
      "Pis": 8123,
      "distin": 8124,
      "tens": 8125,
      "trips": 8126,
      "expecting": 8127,
      "crews": 8128,
      "toilet": 8129,
      "chat": 8130,
      "Welsh": 8131,
      "referee": 8132,
      "Margaret": 8133,
      "entitled": 8134,
      "fet": 8135,
      "argue": 8136,
      "mund": 8137,
      "witnessed": 8138,
      "Civil": 8139,
      "anded": 8140,
      "Mandela": 8141,
      "fortunate": 8142,
      "Book": 8143,
      "?’": 8144,
      "offices": 8145,
      "Arabia": 8146,
      "Warren": 8147,
      "Hamas": 8148,
      "lee": 8149,
      "Inde": 8150,
      "Lion": 8151,
      "disabled": 8152,
      "gear": 8153,
      "activist": 8154,
      "posure": 8155,
      "inspiration": 8156,
      ".)": 8157,
      "confron": 8158,
      "Wol": 8159,
      "Ker": 8160,
      "directed": 8161,
      "5million": 8162,
      "rice": 8163,
      "orse": 8164,
      "ora": 8165,
      "Greek": 8166,
      "pros": 8167,
      "heim": 8168,
      "roit": 8169,
      "Barbara": 8170,
      "awards": 8171,
      "tow": 8172,
      "Fund": 8173,
      "cheek": 8174,
      "mini": 8175,
      "bosses": 8176,
      "Ol": 8177,
      "SU": 8178,
      "Stat": 8179,
      "secut": 8180,
      "estimates": 8181,
      "mystery": 8182,
      "indict": 8183,
      "fitted": 8184,
      "kit": 8185,
      "error": 8186,
      "ami": 8187,
      "significantly": 8188,
      "Microsoft": 8189,
      "bean": 8190,
      "debris": 8191
    },
    "merges": [
      [
        "h",
        "e"
      ],
      [
        "i",
        "n"
      ],
      [
        "a",
        "n"
      ],
      [
        "t",
        "he"
      ],
      [
        "e",
        "r"
      ],
      [
        "o",
        "n"
      ],
      [
        "r",
        "e"
      ],
      [
        "a",
        "t"
      ],
      [
        "e",
        "d"
      ],
      [
        "e",
        "n"
      ],
      [
        "t",
        "o"
      ],
      [
        "s",
        "t"
      ],
      [
        "o",
        "r"
      ],
      [
        "in",
        "g"
      ],
      [
        "a",
        "r"
      ],
      [
        "a",
        "l"
      ],
      [
        "i",
        "t"
      ],
      [
        "o",
        "u"
      ],
      [
        "i",
        "s"
      ],
      [
        "a",
        "s"
      ],
      [
        "an",
        "d"
      ],
      [
        "o",
        "f"
      ],
      [
        "e",
        "s"
      ],
      [
        "t",
        "h"
      ],
      [
        "i",
        "c"
      ],
      [
        "l",
        "e"
      ],
      [
        "o",
        "m"
      ],
      [
        "i",
        "l"
      ],
      [
        "i",
        "d"
      ],
      [
        "b",
        "e"
      ],
      [
        "i",
        "on"
      ],
      [
        "s",
        "e"
      ],
      [
        "a",
        "c"
      ],
      [
        "en",
        "t"
      ],
      [
        "v",
        "e"
      ],
      [
        "a",
        "d"
      ],
      [
        "a",
        "y"
      ],
      [
        "a",
        "m"
      ],
      [
        "f",
        "or"
      ],
      [
        "o",
        "l"
      ],
      [
        "o",
        "w"
      ],
      [
        "l",
        "y"
      ],
      [
        "i",
        "m"
      ],
      [
        "c",
        "h"
      ],
      [
        "i",
        "g"
      ],
      [
        "r",
        "o"
      ],
      [
        "w",
        "as"
      ],
      [
        "i",
        "r"
      ],
      [
        "t",
        "er"
      ],
      [
        "u",
        "r"
      ],
      [
        "v",
        "er"
      ],
      [
        "T",
        "he"
      ],
      [
        "o",
        "t"
      ],
      [
        "th",
        "at"
      ],
      [
        "u",
        "n"
      ],
      [
        "w",
        "h"
      ],
      [
        "u",
        "t"
      ],
      [
        "e",
        "l"
      ],
      [
        "a",
        "g"
      ],
      [
        "it",
        "h"
      ],
      [
        "r",
        "i"
      ],
      [
        "s",
        "a"
      ],
      [
        "h",
        "a"
      ],
      [
        "w",
        "ith"
      ],
      [
        "il",
        "l"
      ],
      [
        "a",
        "re"
      ],
      [
        "c",
        "e"
      ],
      [
        "e",
        "t"
      ],
      [
        "u",
        "s"
      ],
      [
        "l",
        "d"
      ],
      [
        "h",
        "is"
      ],
      [
        "d",
        "e"
      ],
      [
        "n",
        "e"
      ],
      [
        "a",
        "b"
      ],
      [
        "p",
        "e"
      ],
      [
        "l",
        "i"
      ],
      [
        "c",
        "on"
      ],
      [
        "at",
        "ion"
      ],
      [
        "sa",
        "id"
      ],
      [
        "er",
        "s"
      ],
      [
        "l",
        "o"
      ],
      [
        "ou",
        "n"
      ],
      [
        "m",
        "o"
      ],
      [
        "re",
        "s"
      ],
      [
        "f",
        "r"
      ],
      [
        "ou",
        "t"
      ],
      [
        "u",
        "l"
      ],
      [
        "ou",
        "r"
      ],
      [
        "ig",
        "h"
      ],
      [
        "c",
        "om"
      ],
      [
        "al",
        "l"
      ],
      [
        "e",
        "ar"
      ],
      [
        "he",
        "r"
      ],
      [
        "k",
        "e"
      ],
      [
        "r",
        "a"
      ],
      [
        "s",
        "h"
      ],
      [
        "c",
        "t"
      ],
      [
        "the",
        "r"
      ],
      [
        "o",
        "p"
      ],
      [
        "w",
        "e"
      ],
      [
        "e",
        "m"
      ],
      [
        "b",
        "y"
      ],
      [
        "s",
        "u"
      ],
      [
        "l",
        "a"
      ],
      [
        "ha",
        "ve"
      ],
      [
        "fr",
        "om"
      ],
      [
        "h",
        "as"
      ],
      [
        "on",
        "e"
      ],
      [
        "at",
        "e"
      ],
      [
        "p",
        "ro"
      ],
      [
        "p",
        "l"
      ],
      [
        "t",
        "e"
      ],
      [
        "a",
        "p"
      ],
      [
        "igh",
        "t"
      ],
      [
        "d",
        "ay"
      ],
      [
        "s",
        "o"
      ],
      [
        "e",
        "x"
      ],
      [
        "ar",
        "t"
      ],
      [
        "a",
        "f"
      ],
      [
        "0",
        "0"
      ],
      [
        "ou",
        "ld"
      ],
      [
        "a",
        "in"
      ],
      [
        "m",
        "an"
      ],
      [
        "d",
        "i"
      ],
      [
        "f",
        "e"
      ],
      [
        "p",
        "o"
      ],
      [
        "an",
        "t"
      ],
      [
        "en",
        "d"
      ],
      [
        "ac",
        "k"
      ],
      [
        "n",
        "ot"
      ],
      [
        "m",
        "ent"
      ],
      [
        "or",
        "t"
      ],
      [
        "u",
        "p"
      ],
      [
        "wh",
        "o"
      ],
      [
        "y",
        "ear"
      ],
      [
        "g",
        "h"
      ],
      [
        "es",
        "s"
      ],
      [
        "t",
        "r"
      ],
      [
        "g",
        "e"
      ],
      [
        "h",
        "ad"
      ],
      [
        "w",
        "he"
      ],
      [
        "it",
        "y"
      ],
      [
        "i",
        "st"
      ],
      [
        "o",
        "ver"
      ],
      [
        "ic",
        "e"
      ],
      [
        "er",
        "e"
      ],
      [
        "u",
        "st"
      ],
      [
        "b",
        "ut"
      ],
      [
        "o",
        "d"
      ],
      [
        "s",
        "he"
      ],
      [
        "w",
        "or"
      ],
      [
        "om",
        "e"
      ],
      [
        "ar",
        "d"
      ],
      [
        "a",
        "k"
      ],
      [
        "ow",
        "n"
      ],
      [
        "p",
        "er"
      ],
      [
        "i",
        "ve"
      ],
      [
        "the",
        "y"
      ],
      [
        "be",
        "en"
      ],
      [
        "w",
        "ere"
      ],
      [
        "af",
        "ter"
      ],
      [
        "s",
        "p"
      ],
      [
        "oun",
        "d"
      ],
      [
        "a",
        "u"
      ],
      [
        "the",
        "ir"
      ],
      [
        "q",
        "u"
      ],
      [
        "re",
        "d"
      ],
      [
        "to",
        "r"
      ],
      [
        "of",
        "f"
      ],
      [
        "d",
        "o"
      ],
      [
        "id",
        "e"
      ],
      [
        "a",
        "st"
      ],
      [
        "w",
        "ill"
      ],
      [
        "i",
        "es"
      ],
      [
        "d",
        "er"
      ],
      [
        "th",
        "is"
      ],
      [
        "o",
        "k"
      ],
      [
        "ic",
        "h"
      ],
      [
        "c",
        "l"
      ],
      [
        "i",
        "al"
      ],
      [
        "g",
        "o"
      ],
      [
        "u",
        "m"
      ],
      [
        "f",
        "o"
      ],
      [
        "b",
        "er"
      ],
      [
        "b",
        "o"
      ],
      [
        "p",
        "ort"
      ],
      [
        "t",
        "im"
      ],
      [
        "i",
        "f"
      ],
      [
        "ou",
        "gh"
      ],
      [
        "e",
        "v"
      ],
      [
        "g",
        "r"
      ],
      [
        "ac",
        "t"
      ],
      [
        "m",
        "e"
      ],
      [
        "H",
        "e"
      ],
      [
        "p",
        "r"
      ],
      [
        "in",
        "e"
      ],
      [
        "I",
        "n"
      ],
      [
        "2",
        "0"
      ],
      [
        "on",
        "g"
      ],
      [
        "ou",
        "s"
      ],
      [
        "c",
        "r"
      ],
      [
        "i",
        "e"
      ],
      [
        "el",
        "l"
      ],
      [
        "I",
        "t"
      ],
      [
        "ag",
        "e"
      ],
      [
        "u",
        "d"
      ],
      [
        "c",
        "an"
      ],
      [
        "c",
        "k"
      ],
      [
        "e",
        "st"
      ],
      [
        "n",
        "o"
      ],
      [
        "wh",
        "ich"
      ],
      [
        "i",
        "v"
      ],
      [
        "i",
        "a"
      ],
      [
        "h",
        "o"
      ],
      [
        "c",
        "o"
      ],
      [
        "w",
        "o"
      ],
      [
        "ol",
        "d"
      ],
      [
        "s",
        "ay"
      ],
      [
        "b",
        "l"
      ],
      [
        "e",
        "p"
      ],
      [
        "t",
        "s"
      ],
      [
        "an",
        "s"
      ],
      [
        "ac",
        "e"
      ],
      [
        "n",
        "ow"
      ],
      [
        "c",
        "he"
      ],
      [
        "am",
        "e"
      ],
      [
        "ar",
        "y"
      ],
      [
        "at",
        "ed"
      ],
      [
        "ab",
        "out"
      ],
      [
        "m",
        "er"
      ],
      [
        "re",
        "n"
      ],
      [
        "al",
        "ly"
      ],
      [
        "whe",
        "n"
      ],
      [
        "mo",
        "re"
      ],
      [
        "C",
        "h"
      ],
      [
        "in",
        "d"
      ],
      [
        "a",
        "il"
      ],
      [
        "o",
        "ther"
      ],
      [
        "as",
        "s"
      ],
      [
        "w",
        "ay"
      ],
      [
        "y",
        "ou"
      ],
      [
        "h",
        "im"
      ],
      [
        "w",
        "ould"
      ],
      [
        "a",
        "v"
      ],
      [
        "f",
        "f"
      ],
      [
        "at",
        "t"
      ],
      [
        "i",
        "le"
      ],
      [
        "A",
        "n"
      ],
      [
        "b",
        "r"
      ],
      [
        "p",
        "ol"
      ],
      [
        "op",
        "le"
      ],
      [
        "a",
        "ke"
      ],
      [
        "it",
        "s"
      ],
      [
        ".",
        "'"
      ],
      [
        "p",
        "p"
      ],
      [
        "d",
        "is"
      ],
      [
        "en",
        "ce"
      ],
      [
        "it",
        "e"
      ],
      [
        "id",
        "ent"
      ],
      [
        "u",
        "e"
      ],
      [
        "f",
        "ir"
      ],
      [
        "20",
        "1"
      ],
      [
        "com",
        "p"
      ],
      [
        "il",
        "d"
      ],
      [
        "al",
        "so"
      ],
      [
        "wor",
        "k"
      ],
      [
        "ion",
        "s"
      ],
      [
        "an",
        "y"
      ],
      [
        "re",
        "e"
      ],
      [
        "c",
        "ent"
      ],
      [
        "pe",
        "ople"
      ],
      [
        "ne",
        "w"
      ],
      [
        "ver",
        "y"
      ],
      [
        "c",
        "re"
      ],
      [
        "m",
        "on"
      ],
      [
        "ic",
        "t"
      ],
      [
        "ig",
        "n"
      ],
      [
        "p",
        "art"
      ],
      [
        "c",
        "or"
      ],
      [
        "g",
        "et"
      ],
      [
        "t",
        "wo"
      ],
      [
        ",",
        "\""
      ],
      [
        "th",
        "an"
      ],
      [
        "s",
        "ome"
      ],
      [
        "S",
        "t"
      ],
      [
        "ic",
        "k"
      ],
      [
        "s",
        "s"
      ],
      [
        "tim",
        "e"
      ],
      [
        "m",
        "y"
      ],
      [
        "p",
        "res"
      ],
      [
        "u",
        "re"
      ],
      [
        "ab",
        "le"
      ],
      [
        "ar",
        "k"
      ],
      [
        "ol",
        "l"
      ],
      [
        "fo",
        "re"
      ],
      [
        "in",
        "to"
      ],
      [
        "i",
        "an"
      ],
      [
        "la",
        "st"
      ],
      [
        "j",
        "ust"
      ],
      [
        "is",
        "h"
      ],
      [
        "m",
        "ed"
      ],
      [
        "i",
        "p"
      ],
      [
        "M",
        "r"
      ],
      [
        "B",
        "r"
      ],
      [
        "c",
        "oun"
      ],
      [
        "f",
        "t"
      ],
      [
        "-",
        "-"
      ],
      [
        "l",
        "and"
      ],
      [
        "e",
        "k"
      ],
      [
        "the",
        "m"
      ],
      [
        "s",
        "er"
      ],
      [
        "th",
        "ing"
      ],
      [
        "st",
        "r"
      ],
      [
        "to",
        "ld"
      ],
      [
        "ac",
        "h"
      ],
      [
        "in",
        "t"
      ],
      [
        "c",
        "ould"
      ],
      [
        "li",
        "ke"
      ],
      [
        "p",
        "re"
      ],
      [
        "B",
        "ut"
      ],
      [
        "an",
        "g"
      ],
      [
        "at",
        "h"
      ],
      [
        "s",
        "on"
      ],
      [
        "b",
        "le"
      ],
      [
        "year",
        "s"
      ],
      [
        "pl",
        "ay"
      ],
      [
        "b",
        "ack"
      ],
      [
        "the",
        "re"
      ],
      [
        "ad",
        "e"
      ],
      [
        "W",
        "e"
      ],
      [
        "am",
        "p"
      ],
      [
        "a",
        "ir"
      ],
      [
        ".",
        "\""
      ],
      [
        "fir",
        "st"
      ],
      [
        "an",
        "ce"
      ],
      [
        "N",
        "e"
      ],
      [
        "n",
        "ing"
      ],
      [
        "d",
        "on"
      ],
      [
        "r",
        "y"
      ],
      [
        "c",
        "au"
      ],
      [
        "c",
        "ar"
      ],
      [
        "v",
        "ed"
      ],
      [
        "t",
        "y"
      ],
      [
        "i",
        "re"
      ],
      [
        "he",
        "l"
      ],
      [
        "le",
        "g"
      ],
      [
        "se",
        "l"
      ],
      [
        "1",
        "9"
      ],
      [
        "con",
        "t"
      ],
      [
        "p",
        "h"
      ],
      [
        "u",
        "g"
      ],
      [
        "in",
        "k"
      ],
      [
        "is",
        "s"
      ],
      [
        "d",
        "own"
      ],
      [
        "f",
        "am"
      ],
      [
        "il",
        "y"
      ],
      [
        "m",
        "in"
      ],
      [
        "at",
        "er"
      ],
      [
        "T",
        "h"
      ],
      [
        "us",
        "ed"
      ],
      [
        "as",
        "e"
      ],
      [
        "i",
        "z"
      ],
      [
        "in",
        "s"
      ],
      [
        "v",
        "ing"
      ],
      [
        "t",
        "ed"
      ],
      [
        "U",
        "n"
      ],
      [
        "S",
        "he"
      ],
      [
        "in",
        "ter"
      ],
      [
        "t",
        "ing"
      ],
      [
        "en",
        "s"
      ],
      [
        "be",
        "fore"
      ],
      [
        "cau",
        "se"
      ],
      [
        "wh",
        "at"
      ],
      [
        "t",
        "ra"
      ],
      [
        "ic",
        "al"
      ],
      [
        "ation",
        "s"
      ],
      [
        "ag",
        "ain"
      ],
      [
        "we",
        "ek"
      ],
      [
        "be",
        "ing"
      ],
      [
        "o",
        "b"
      ],
      [
        "sh",
        "ow"
      ],
      [
        "en",
        "c"
      ],
      [
        "ur",
        "n"
      ],
      [
        "f",
        "l"
      ],
      [
        "f",
        "ul"
      ],
      [
        "d",
        "ing"
      ],
      [
        "ch",
        "ild"
      ],
      [
        "c",
        "all"
      ],
      [
        "whe",
        "re"
      ],
      [
        "d",
        "es"
      ],
      [
        "re",
        "port"
      ],
      [
        "i",
        "ous"
      ],
      [
        "A",
        "l"
      ],
      [
        ",",
        "'"
      ],
      [
        "h",
        "ome"
      ],
      [
        "mo",
        "st"
      ],
      [
        "ur",
        "ing"
      ],
      [
        "it",
        "ion"
      ],
      [
        "00",
        "0"
      ],
      [
        "off",
        "ic"
      ],
      [
        "ch",
        "o"
      ],
      [
        "s",
        "c"
      ],
      [
        "at",
        "es"
      ],
      [
        "tr",
        "y"
      ],
      [
        "d",
        "id"
      ],
      [
        "con",
        "d"
      ],
      [
        "Ne",
        "w"
      ],
      [
        "r",
        "ight"
      ],
      [
        "t",
        "on"
      ],
      [
        "un",
        "der"
      ],
      [
        "t",
        "ri"
      ],
      [
        "say",
        "s"
      ],
      [
        "s",
        "pe"
      ],
      [
        "f",
        "ound"
      ],
      [
        "w",
        "om"
      ],
      [
        "ou",
        "p"
      ],
      [
        "c",
        "ur"
      ],
      [
        "re",
        "at"
      ],
      [
        "2",
        "00"
      ],
      [
        "th",
        "r"
      ],
      [
        "ct",
        "ion"
      ],
      [
        "it",
        "ed"
      ],
      [
        "re",
        "m"
      ],
      [
        "u",
        "bl"
      ],
      [
        "pol",
        "ice"
      ],
      [
        "res",
        "s"
      ],
      [
        "mon",
        "th"
      ],
      [
        "le",
        "ft"
      ],
      [
        "h",
        "ow"
      ],
      [
        "w",
        "ant"
      ],
      [
        "L",
        "e"
      ],
      [
        "ad",
        "d"
      ],
      [
        "be",
        "cause"
      ],
      [
        "lo",
        "ok"
      ],
      [
        "in",
        "ce"
      ],
      [
        "an",
        "n"
      ],
      [
        "th",
        "ree"
      ],
      [
        "o",
        "g"
      ],
      [
        "in",
        "cl"
      ],
      [
        "c",
        "er"
      ],
      [
        "as",
        "h"
      ],
      [
        "ver",
        "s"
      ],
      [
        "d",
        "r"
      ],
      [
        "u",
        "b"
      ],
      [
        "ul",
        "t"
      ],
      [
        "ill",
        "ion"
      ],
      [
        "f",
        "in"
      ],
      [
        "wh",
        "ile"
      ],
      [
        "e",
        "f"
      ],
      [
        "he",
        "d"
      ],
      [
        "s",
        "to"
      ],
      [
        "on",
        "ly"
      ],
      [
        "al",
        "s"
      ],
      [
        "ch",
        "ar"
      ],
      [
        "s",
        "ur"
      ],
      [
        "ent",
        "s"
      ],
      [
        "v",
        "is"
      ],
      [
        "l",
        "ed"
      ],
      [
        "g",
        "u"
      ],
      [
        "t",
        "ak"
      ],
      [
        "he",
        "ad"
      ],
      [
        "u",
        "red"
      ],
      [
        "at",
        "ing"
      ],
      [
        "ct",
        "ed"
      ],
      [
        "com",
        "e"
      ],
      [
        "be",
        "t"
      ],
      [
        "an",
        "c"
      ],
      [
        "p",
        "t"
      ],
      [
        "m",
        "ade"
      ],
      [
        "fam",
        "ily"
      ],
      [
        "o",
        "se"
      ],
      [
        "c",
        "ess"
      ],
      [
        "C",
        "N"
      ],
      [
        "An",
        "d"
      ],
      [
        "ation",
        "al"
      ],
      [
        "CN",
        "N"
      ],
      [
        "s",
        "ide"
      ],
      [
        "com",
        "m"
      ],
      [
        "le",
        "ad"
      ],
      [
        "se",
        "t"
      ],
      [
        "for",
        "m"
      ],
      [
        "po",
        "s"
      ],
      [
        "b",
        "u"
      ],
      [
        "F",
        "r"
      ],
      [
        "the",
        "n"
      ],
      [
        "re",
        "st"
      ],
      [
        "ri",
        "end"
      ],
      [
        "c",
        "our"
      ],
      [
        "again",
        "st"
      ],
      [
        "k",
        "ill"
      ],
      [
        "ter",
        "s"
      ],
      [
        "A",
        "r"
      ],
      [
        "c",
        "la"
      ],
      [
        "v",
        "ic"
      ],
      [
        "re",
        "t"
      ],
      [
        "over",
        "n"
      ],
      [
        "d",
        "uring"
      ],
      [
        "ubl",
        "ic"
      ],
      [
        "v",
        "es"
      ],
      [
        "ou",
        "se"
      ],
      [
        "re",
        "g"
      ],
      [
        "al",
        "k"
      ],
      [
        "M",
        "ar"
      ],
      [
        "li",
        "fe"
      ],
      [
        "hel",
        "p"
      ],
      [
        "re",
        "ad"
      ],
      [
        "c",
        "ed"
      ],
      [
        "f",
        "riend"
      ],
      [
        "th",
        "ough"
      ],
      [
        "w",
        "ard"
      ],
      [
        "thr",
        "ough"
      ],
      [
        "is",
        "e"
      ],
      [
        "it",
        "ies"
      ],
      [
        "v",
        "en"
      ],
      [
        "W",
        "h"
      ],
      [
        "R",
        "o"
      ],
      [
        "cla",
        "im"
      ],
      [
        "p",
        "ict"
      ],
      [
        "The",
        "y"
      ],
      [
        "ap",
        "pe"
      ],
      [
        "ev",
        "en"
      ],
      [
        "man",
        "y"
      ],
      [
        "D",
        "e"
      ],
      [
        "w",
        "ell"
      ],
      [
        "a",
        "ther"
      ],
      [
        "incl",
        "ud"
      ],
      [
        "c",
        "ol"
      ],
      [
        "it",
        "al"
      ],
      [
        "c",
        "le"
      ],
      [
        "st",
        "er"
      ],
      [
        "f",
        "i"
      ],
      [
        "n",
        "er"
      ],
      [
        "or",
        "s"
      ],
      [
        "an",
        "k"
      ],
      [
        "e",
        "very"
      ],
      [
        "l",
        "ong"
      ],
      [
        "v",
        "ie"
      ],
      [
        "as",
        "k"
      ],
      [
        "p",
        "ut"
      ],
      [
        ".",
        "."
      ],
      [
        "at",
        "ch"
      ],
      [
        "e",
        "ver"
      ],
      [
        "u",
        "se"
      ],
      [
        "c",
        "ial"
      ],
      [
        "c",
        "over"
      ],
      [
        "de",
        "c"
      ],
      [
        ".",
        "’"
      ],
      [
        "J",
        "o"
      ],
      [
        "m",
        "ake"
      ],
      [
        "s",
        "i"
      ],
      [
        "wor",
        "ld"
      ],
      [
        "v",
        "ide"
      ],
      [
        "c",
        "lo"
      ],
      [
        "d",
        "u"
      ],
      [
        "as",
        "ed"
      ],
      [
        "cho",
        "ol"
      ],
      [
        "re",
        "l"
      ],
      [
        "ar",
        "ound"
      ],
      [
        "ve",
        "l"
      ],
      [
        "cor",
        "ding"
      ],
      [
        "k",
        "now"
      ],
      [
        "la",
        "w"
      ],
      [
        "1",
        "0"
      ],
      [
        "te",
        "st"
      ],
      [
        "m",
        "illion"
      ],
      [
        "be",
        "li"
      ],
      [
        "sel",
        "f"
      ],
      [
        "se",
        "e"
      ],
      [
        "u",
        "ch"
      ],
      [
        "s",
        "y"
      ],
      [
        "w",
        "ar"
      ],
      [
        "Br",
        "it"
      ],
      [
        "child",
        "ren"
      ],
      [
        "E",
        "n"
      ],
      [
        "c",
        "tor"
      ],
      [
        "ne",
        "ed"
      ],
      [
        "T",
        "his"
      ],
      [
        "ve",
        "st"
      ],
      [
        "p",
        "ers"
      ],
      [
        "as",
        "on"
      ],
      [
        "go",
        "ing"
      ],
      [
        "ff",
        "er"
      ],
      [
        "A",
        "mer"
      ],
      [
        "overn",
        "ment"
      ],
      [
        "Amer",
        "ic"
      ],
      [
        "g",
        "er"
      ],
      [
        "f",
        "our"
      ],
      [
        "t",
        "ake"
      ],
      [
        "th",
        "ink"
      ],
      [
        "R",
        "e"
      ],
      [
        "te",
        "am"
      ],
      [
        "h",
        "and"
      ],
      [
        "r",
        "is"
      ],
      [
        "are",
        "n"
      ],
      [
        "n",
        "ight"
      ],
      [
        "c",
        "ame"
      ],
      [
        "m",
        "il"
      ],
      [
        "st",
        "art"
      ],
      [
        "t",
        "en"
      ],
      [
        "A",
        "s"
      ],
      [
        "ing",
        "s"
      ],
      [
        "am",
        "a"
      ],
      [
        "l",
        "ine"
      ],
      [
        "c",
        "us"
      ],
      [
        "g",
        "ed"
      ],
      [
        "oll",
        "ow"
      ],
      [
        "c",
        "ap"
      ],
      [
        "c",
        "ut"
      ],
      [
        "g",
        "an"
      ],
      [
        "b",
        "ed"
      ],
      [
        "att",
        "ack"
      ],
      [
        "m",
        "iss"
      ],
      [
        "sh",
        "ould"
      ],
      [
        "ou",
        "th"
      ],
      [
        "ar",
        "ri"
      ],
      [
        "t",
        "ain"
      ],
      [
        "m",
        "ay"
      ],
      [
        "m",
        "s"
      ],
      [
        "u",
        "res"
      ],
      [
        "le",
        "t"
      ],
      [
        "s",
        "ince"
      ],
      [
        "x",
        "t"
      ],
      [
        "al",
        "e"
      ],
      [
        "w",
        "in"
      ],
      [
        "l",
        "ing"
      ],
      [
        "tor",
        "y"
      ],
      [
        "es",
        "day"
      ],
      [
        "st",
        "ill"
      ],
      [
        "ha",
        "pp"
      ],
      [
        "vie",
        "w"
      ],
      [
        "o",
        "s"
      ],
      [
        "are",
        "d"
      ],
      [
        "b",
        "re"
      ],
      [
        "mo",
        "ther"
      ],
      [
        "al",
        "th"
      ],
      [
        "de",
        "ath"
      ],
      [
        "m",
        "em"
      ],
      [
[...]
